#version: 0.2
Ġ t
Ġ a
h e
i n
Ġt he
r e
Ġ o
Ġ s
Ġ .
e r
Ġ w
Ġ c
o n
a t
Ġ ,
Ġ b
a n
e n
Ġ p
i t
i s
e d
Ġ f
Ġ in
Ġ m
e s
o r
Ġa n
Ġo f
a l
a r
Ġ d
o u
in g
Ġ h
i c
Ġan d
Ġt o
Ġ l
a s
i on
r o
Ġ "
Ġt h
Ġ n
Ġ g
Ġ e
l e
Ġ re
en t
o m
i l
s t
Ġb e
v e
l y
c t
Ġ u
i d
o l
Ġ is
a m
Ġo n
Ġs t
e t
Ġf or
a d
i m
Ġ y
o t
Ġ he
Ġ 1
i g
u t
Ġw h
c h
at ion
o w
c e
Ġth at
Ġa s
Ġ it
u r
s e
' s
a y
v er
i r
Ġ r
Ġw as
Ġa l
Ġ -
Ġ ?
it h
e l
u l
Ġc on
Ġw ith
t er
he r
Ġd e
Ġp ro
Ġ k
is t
Ġb y
Ġy ou
Ġ (
Ġ )
Ġs u
Ġs e
Ġ j
Ġc om
e re
r a
Ġ v
Ġm o
Ġa re
u s
t h
Ġc h
o p
i f
an d
Ġo r
er s
Ġa t
r i
ro m
u m
Ġu n
a c
ou n
Ġ 2
a g
l d
e m
es t
Ġe x
Ġ1 9
at e
a in
u n
Ġn e
o s
o d
an t
Ġf rom
re s
Ġh a
i es
ig h
a b
q u
p p
il l
it y
a k
Ġs p
u d
m ent
i v
o c
i ve
Ġh is
ar t
0 0
or t
es s
Ġth is
al l
ic h
Ġn ot
Ġs h
Ġ i
Ġa r
Ġl e
i al
Ġp l
Ġ en
Ġg o
i an
Ġha ve
g h
Ġw or
Ġd o
igh t
a p
ic al
Ġw he
e ct
Ġw ere
t her
re d
ar d
at ed
Ġwh ich
Ġthe y
i a
g e
Ġc an
om e
b er
as t
Ġs a
i e
Ġu s
e ar
Ġa b
ou ld
ou gh
el l
u st
am e
Ġwh at
Ġt r
Ġcom p
ou r
d er
Ġon e
o k
in e
ion s
c l
i p
ar y
Ġa d
Ġh as
o g
u re
oun d
Ġc l
p t
Ġb ut
Ġal l
Ġin t
on g
s o
Ġm an
Ġa f
Ġw e
ou s
Ġthe re
p er
Ġ â
is h
Ġwh o
Ġ ro
id e
c c
Ġcon t
ou t
Ġthe ir
en d
an s
Ġo ther
k e
Ġh ad
Ġm e
Ġal so
Ġâ Ģ
Ġa m
i z
ac k
Ġn o
o re
Ġp art
r y
u b
Ġs c
Ġt e
r it
al ly
Ġl i
Ġp er
ation s
d u
Ġ im
Ġ2 0
ig n
ic e
as s
Ġne w
Ġg r
Ġmo re
Ġre s
ag e
Ġsa id
Ġbe c
Ġcom m
ul t
a ct
Ġy ear
Ġs ome
at er
Ġit s
re n
Ġs o
Ġf ir
Ġc o
p l
im e
Ġa g
a v
Ġd is
an g
oun t
Ġt w
Ġfor m
ow n
Ġp e
Ġfir st
it ion
ct ion
ve l
Ġb o
Ġo ut
at es
en ce
Ġbe en
i re
Ġin d
Ġa pp
u e
Ġu p
or d
Ġk n
on e
Ġ :
a u
Ġm ar
Ġc ol
' t
re e
f f
Ġs he
r u
Ġs y
or y
cl ud
i b
a ce
Ġe v
Ġo ver
Ġof f
Ġp o
an ce
Ġre c
Ġl o
e c
Ġwhe n
a ch
Ġaf ter
k s
Ġc ent
ak e
Ġ ;
er m
or m
Ġh ow
Ġtw o
Ġth an
he d
Ġb l
ab le
Ġin clud
i le
p h
Ġp res
en s
ent s
w e
or s
ver s
r ic
Ġre p
Ġmo st
Ġ20 1
ter n
Ġw ould
o se
Ġs er
on d
Ġd es
Ġli ke
Ġsu ch
Ġ2 00
Ġab out
Ġf e
Ġp re
Ġe m
Ġhe r
t s
Ġthe m
c ed
in d
Ġp r
Ġe le
Ġt ime
Ġg en
a h
Ġp ol
l l
Ġwhe re
l ic
Ġe ar
c es
it e
Ġw ill
Ġ 3
Ġ qu
a re
ad e
Ġm ay
Ġbe t
ver y
ation al
Ġb r
Ġp h
l and
Ġint o
v ed
as e
Ġcon s
Ġman y
it ed
w n
t e
Ġre l
Ġpe op
Ġ1 8
ur ing
Ġa cc
l ow
Ġthe se
Ġus ed
il d
Ġc ar
Ġpl ay
Ġwor k
Ġim p
Ġpeop le
am p
Ġl a
ĠâĢ ĵ
re at
Ġ '
Ġw ar
c k
i ed
ing s
Ġon ly
is m
Ġs ch
Ġre g
Ġc ount
Ġat t
Ġd id
l es
e p
ere d
Ġun der
Ġst ud
ul ar
ay s
ol og
res s
t ed
a il
Ġa ct
if f
ol d
n a
ver n
Ġo h
at h
er ic
on s
Ġse c
Ġin f
ri b
Ġp op
Ġwor ld
al s
i ous
Ġh im
Ġc all
is s
Ġf l
Ġd uring
as ed
Ġyear s
Ġse e
o od
Ġre f
Ġgo vern
Ġj o
ro p
Ġpro du
ere n
Ġr ight
au se
Ġt ra
Ġsu b
Ġa c
Ġn um
Ġ if
g an
id ent
t le
in k
Ġl ar
Ġth r
at ive
Ġf r
Ġp ar
Ġw ell
Ġin c
ot h
Ġex p
we en
Ġbet ween
Ġb u
ou p
if ic
f t
st em
g r
Ġm a
ur n
Ġen g
Ġm in
Ġre m
Ġd iff
t en
ic s
Ġm on
Ġn ow
Ġ 4
o ol
Ġsy stem
Ġthe n
Ġo k
Ġp ub
ic k
Ġthr ough
Ġas s
it ies
Ġde f
Ġd on
ist s
Ġtr ans
Ġam eric
j ect
y s
Ġs m
Ġyou r
Ġg et
Ġgen er
Ġin st
Ġan y
Ġsu pp
u al
Ġo b
Ġw ant
Ġhe re
Ġu se
ĠâĢ Ķ
Ġm et
Ġst ates
Ġok ay
Ġ19 9
Ġch ar
Ġm u
i ent
at ing
Ġsp ec
Ġwh ile
Ġ 5
, "
or n
Ġj ust
in ce
Ġ ed
Ġc ould
Ġst ate
Ġgovern ment
Ġf ound
i et
Ġ z
Ġsch ool
Ġf ol
Ġin v
ot her
Ġh igh
ut ion
ur y
i x
Ġbec ause
Ġag ain
Ġgr oup
Ġp os
t ing
Ġin ter
Ġl it
he s
Ġ %
vel op
i o
Ġde c
y p
in es
Ġh ist
Ġm em
Ġcall ed
ic t
Ġs et
il y
Ġad d
Ġth ree
Ġm ade
Ġde velop
Ġf in
u c
Ġm us
Ġs ou
e ver
is hed
Ġb ack
Ġl et
w ard
f ore
Ġlo ok
i vers
Ġs ur
Ġc ity
Ġen d
Ġb ro
Ġa ir
Ġe u
Ġd ist
ow er
Ġele ct
is e
Ġfol low
Ġkn own
Ġ !
Ġhow ever
Ġs im
Ġl ater
Ġp ut
Ġf il
Ġun ited
u res
Ġb oth
ro w
Ġpro v
u ally
se l
Ġf un
' re
Ġg u
Ġbe ing
Ġde p
if e
oc k
in t
Ġgo od
t ain
l i
Ġl ong
v ing
Ġc ap
ce pt
00 0
Ġn or
Ġkn ow
t y
Ġw rit
Ġe ff
Ġdiff eren
Ġm il
in s
Ġv ar
Ġm ed
h ip
Ġ /
Ġ ent
Ġ 6
Ġs ign
Ġ est
iz ed
Ġs ince
Ġy e
Ġla w
Ġbe l
Ġcon st
Ġth ose
Ġar t
it s
ter s
o st
Ġex t
om et
Ġl oc
at her
b le
Ġd own
Ġar m
Ġinclud ing
u g
Ġear ly
an ge
Ġ19 8
Ġn ational
Ġhe l
Ġs oc
Ġf am
r al
Ġnum ber
n ing
ical ly
Ġa ut
Ġm y
c on
im es
c ess
Ġm ain
f ul
ment s
Ġc re
. "
Ġle ad
t on
i el
c y
n e
ib le
in ed
m an
Ġk e
ra ct
Ġm ake
Ġcent ury
Ġsh ow
Ġp ers
Ġdo es
Ġye ah
ill ion
Ġbe fore
l ed
Ġo p
Ġo wn
ant s
Ġin tern
Ġbec ame
al e
Ġg erm
c o
Ġh um
ro s
b ers
Ġsec ond
i um
Ġm at
Ġbo ok
d ay
Ġcon f
r on
Ġ19 7
Ġ very
an y
Ġfil m
h ing
Ġd ire
ur al
an k
g est
Ġc al
Ġev en
am es
Ġth ough
Ġo per
Ġe l
Ġp a
t il
Ġl ang
Ġt erm
ak ing
Ġf our
Ġun ivers
Ġma j
Ġeu rop
d s
Ġe ach
Ġs ame
Ġpro t
w ay
ou se
Ġ rom
ial ly
Ġoff ic
Ġst r
Ġth ink
v es
Ġeurop e
Ġre t
Ġde m
Ġs l
Ġc r
Ġs ay
or k
Ġg re
Ġmu ch
is ion
Ġch ild
Ġlang u
u es
Ġcl ass
Ġ 7
ian s
Ġle g
Ġan other
g er
olog y
Ġt yp
Ġar ound
ag es
Ġhel p
f orm
Ġor ig
Ġpart ic
Ġmaj or
Ġcont in
g et
ar ch
a ve
Ġw ater
Ġse ver
Ġc or
Ġb rit
Ġcol le
Ġlar ge
Ġc he
Ġ19 6
us s
Ġk ing
il ity
Ġof ten
iv es
Ġd ay
Ġ 8
v en
Ġameric an
Ġpub lic
Ġcomm un
Ġdifferen t
os ed
a red
Ġres p
Ġne ed
Ġin s
Ġlit tle
ul ation
Ġsever al
Ġcount ry
Ġsm all
x t
er g
Ġpres ident
Ġres ult
Ġo ld
gr am
ie w
Ġcomm on
Ġs w
Ġc ur
ord ing
Ġcont ro
Ġagain st
l ished
l ish
Ġdes c
Ġn ame
at ure
Ġw ay
Ġ1 7
Ġs omet
Ġnor th
Ġ1 0
Ġinc re
Ġg l
Ġsupp ort
Ġl ife
ar s
Ġcomp le
Ġp ri
Ġsou th
Ġdire ct
Ġl ast
i red
c er
in a
Ġpro gram
ru ct
iv ed
Ġorig in
Ġv al
Ġpl an
Ġa p
u p
Ġ ir
Ġe very
ul a
Ġc our
Ġg reat
Ġp ower
Ġmo d
a z
Ġor gan
Ġst ill
Ġst art
Ġh and
Ġe qu
Ġl and
o y
Ġo cc
Ġd et
Ġ1 5
r ist
ri es
Ġpol it
a ir
Ġsp e
Ġimp ort
Ġcons id
amp le
ul l
Ġst and
Ġ >
Ġun til
Ġser v
Ġs ing
Ġf ar
v ent
Ġt ake
Ġtr ad
Ġ 9
Ġg e
Ġmar k
Ġcom e
Ġdes ign
Ġ $
ut e
Ġe con
Ġecon om
Ġex per
is ed
Ġb ased
c ent
i er
Ġacc ording
ch n
Ġre ad
Ġop en
th ough
Ġall ow
h n
Ġch rist
Ġrem ain
Ġd r
Ġne ar
an c
as on
Ġal though
ren t
id ed
Ġre le
Ġre qu
Ġ <
Ġp ass
Ġte am
Ġp at
Ġm illion
Ġc a
o b
Ġh ouse
ra ph
Ġre se
Ġr un
i od
Ġb as
Ġan n
Ġb us
Ġb ar
Ġpro p
Ġb ig
i ence
Ġh ome
Ġhe ad
b r
Ġunivers ity
Ġex ample
re ad
Ġis land
u ed
Ġs ol
Ġ es
Ġre v
it al
Ġmo der
Ġgener al
Ġ1 6
ros s
he n
at ic
Ġsh ould
sel f
Ġam ong
Ġeff ect
i ver
Ġs k
Ġte chn
Ġmus ic
Ġw om
Ġpers on
Ġrec ord
Ġm id
et s
s on
ion al
Ġan t
Ġto o
Ġmil it
Ġhist ory
ur ch
ort s
Ġr ad
Ġ er
od y
cc ess
Ġbel ie
m in
Ġjo hn
Ġ19 4
Ġc ult
Ġre st
m ber
Ġper iod
Ġn on
id es
Ġf act
i k
Ġa v
Ġex pl
Ġf re
Ġinclud e
iel d
Ġpos s
Ġbe gan
Ġd iv
Ġt er
on na
n er
Ġchar act
Ġt urn
Ġm ag
al th
om m
el s
Ġt ri
Ġus ing
Ġfollow ing
Ġh ar
Ġgo ing
Ġb at
Ġf ore
a im
one y
Ġpro cess
Ġo pp
Ġh un
en e
Ġv is
Ġapp ro
Ġbu ild
ak es
if ied
Ġmoder n
Ġpart y
Ġmo ve
n ed
' ll
Ġad v
in c
o v
it ions
l u
h a
Ġsu ccess
ent ly
al k
om in
Ġ x
ic es
em ent
im ate
Ġg iv
Ġintern ational
Ġ1 2
Ġg ame
Ġg onna
iss ion
Ġare a
Ġ19 5
Ġj e
Ġde ath
Ġl ess
Ġchild ren
Ġper form
ect ed
Ġre al
re t
Ġform ula
Ġpop ulation
Ġhum an
ot e
m s
Ġwith in
m b
t he
Ġst e
as es
Ġbrit ish
iz e
Ġd ra
Ġs it
o ot
ir d
Ġaut h
Ġrep res
Ġ ve
end ed
Ġc amp
Ġlangu age
iz ation
Ġc rit
Ġ ide
Ġser ies
Ġe as
Ã ©
Ġt a
Ġw est
Ġt em
n ess
Ġp ort
Ġl at
Ġmilit ary
b s
Ġg ot
Ġb re
Ġst at
en g
Ġre ce
le y
en se
us ed
Ġc le
Ġd ue
Ġest ab
Ġbl ack
Ġfam ily
m e
i ation
Ġmem bers
Ġc at
Ġfe w
u red
Ġr a
y ing
Ġpl ace
Ġan g
ar k
Ġc oun
am ed
Ġsc ient
Ġpop ular
Ġdesc rib
Ġhist or
Ġan im
on t
Ġs al
Ġf ind
Ġal ong
Ġpro ble
Ġw in
Ġl ed
Ġgerm an
Ġstud ents
Ġimport ant
Ġph il
an e
Ġc are
Ġdis c
il ar
Ġm en
Ġte le
Ġre d
Ġpolit ical
at or
Ġme an
Ġch ang
Ġaf ric
Ġi i
g in
Ġg row
Ġpro f
er v
en cy
id s
Ġsim ilar
p or
Ġinf lu
ough t
Ġaf f
i am
Ġt est
Ġl ab
b o
g ed
Ġf ive
Ġle ft
Ġeng lish
Ġto ok
as h
Ġh ig
Ġar g
Ġass oc
Ġh al
Ġto p
Ġret urn
Ġh u
b e
Ġtrad ition
am a
ren ch
Ġch urch
Ġle vel
Ġl im
m er
Ġor der
am ent
s p
Ġadd ition
Ġsoc ial
Ġwith out
qu e
Ġrel ig
Ġf ood
em ber
Ġd el
Ġwh ite
Ġt imes
Ġrep ort
un e
Ġrepres ent
r ation
Ġj u
Ġ19 3
Ġcontro l
Ġl ight
Ġn et
Ġmon th
Ġsp ace
Ġed uc
ro du
Ġn at
og raph
ac ed
Ġ1 1
g ress
Ġwe e
Ġis s
Ġv i
an n
Ġpartic ular
Ġf rench
Ġoffic ial
Ġg od
or ies
is ter
Ġcount ries
iet y
Ġcomp any
at s
Ġa ust
Ġe ast
Ġrom an
i us
Ġl ate
Ġsu per
y l
ard s
Ġwom en
p ar
Ġv ol
Ġ vers
Ġw on
Ġl ine
Ġim m
Ġind ust
Ġl ow
Ġs ix
Ġsu g
Ġsh ort
l ing
Ġha pp
Ġt reat
Ġcomp ut
' m
Ġbec ome
on y
Ġdevelop ment
Ġm ust
a w
ed er
Ġrep ub
le ct
Ġc ame
Ġp ract
is on
Ġyou n
Ġpres ent
b y
Ġf ree
Ġcont ain
Ġpo st
Ġpo int
Ġrepub lic
Ġloc al
Ġcom b
Ġe p
Ġatt ack
Ġ1 4
i or
Ġauth or
on es
Ġ1 3
Ġr ul
Ġde v
Ġstud y
ri ed
Ġf ur
Ġp ur
Ġar ch
op h
Ġc iv
Ġv iew
Ġb ra
Ġm ass
y n
Ġbe h
ot s
ab ly
Ġne ver
Ġper cent
ol ution
Ġr uss
at a
Ġh ard
Ġsu n
os s
en n
Ġh y
Ġcharact er
Ġgiv en
h od
Ġpro ject
t o
Ġapp ear
es e
er ing
Ġcour t
Ġcl aim
Ġother s
es tern
Ġde cl
Ġc ir
Ġev ent
le t
ri pt
Ġconsid ered
Ġform er
Ġne xt
in ess
Ġk ill
op s
Ġinf orm
Ġcent ral
p ort
Ġs ays
Ġb ab
iv al
Ġph ys
Ġeurope an
Ġhe alth
Ġarm y
Ġrese arch
it her
Ġspec ial
s ide
au gh
Ġc er
Ġg ra
Ġ ident
Ġs n
Ġb all
Ġb i
od e
ep end
Ġb est
Ġciv il
Ġpub lished
ro te
Ġpro m
b all
u ck
Ġind epend
Ġo ur
Ġh old
Ġcon d
i pp
Ġfor ce
Ġserv ice
Ġpr im
Ġc ase
Ġd ri
Ġm ult
Ġprodu ct
Ġb and
an na
in ing
z e
Ġa ge
er c
Ġy es
Ġsu m
Ġus ually
Ġex ist
Ġinv ol
Ġm ot
ct or
Ġwh y
end s
l ess
c il
Ġm ic
olog ical
Ġ19 2
Ġwor ks
Ġch ange
Ġear th
al ity
Ġre pl
en ed
ive ly
Ġs our
Ġw rote
l er
um ent
Ġin it
Ġhe ld
Ġcon n
iv ing
t al
Ġha ving
Ġm al
Ġsing le
her s
Ġy ork
o ve
pl oy
w ork
Ġcur rent
Ġto day
Ġm or
Ġp ap
am m
Ġpre v
rib ut
Ġvar ious
Ġal b
Ġlar gest
um p
il t
Ġst ar
s c
Ġun ion
Ġfur ther
ber t
Ġm aking
Ġint rodu
an ces
Ġl ist
em pt
Ġpro per
ac es
Ġa ug
Ġm iss
Ġdo ing
Ġp et
Ġact iv
g g
Ġm ight
Ġdevelop ed
Ġrele ased
Ġpres s
Ġre du
m it
Ġsign ific
Ġa way
Ġgroup s
Ġse a
Ġro ck
Ġst re
Ġj an
Ġw estern
Ġinclud ed
Ġmet hod
ward s
Ġw at
Ġst ruct
Ġem p
Ġp ot
g en
Ġco st
Ġm oney
Ġcir c
ere st
Ġs at
ent ion
Ġp al
Ġp ain
in ation
Ġh o
ap an
a e
w ays
Ġsomet imes
Ġo ct
Ġfe at
og n
m ost
Ġstr ong
Ġg ive
Ġt our
ist ic
Ġg ames
Ġn ort
Ġ [
Ġt it
Ġocc ur
i en
c hed
Ġf ield
Ġme as
Ġj apan
iv id
Ġ ]
g es
Ġf ri
Ġm ount
Ġeng ine
p le
he m
Ġit al
erg y
i ated
Ġb ir
Ġt ell
Ġreg ion
Ġu r
Ġth ird
r ing
Ġsystem s
Ġw anna
Ġint erest
Ġse ason
Ġg ree
Ġare as
st er
Ġcl ose
Ġs ent
Ġconst it
Ġhal f
Ġto get
Ġtoget her
Ġs ong
Ġd i
Ġt ur
Ġsomet hing
Ġbet ter
Ġind ivid
ad d
Ġpol ic
Ġes p
os p
Ġv ir
Ġprodu ction
Ġbus iness
Ġc ell
Ġsug gest
Ġ19 1
Ġref er
Ġrel ations
Ġw ent
d om
Ġt re
Ġb ody
is ing
id ence
Ġm ater
Ġmar ch
Ġ ver
Ġan c
Ġan al
end ing
Ġw ide
Ġje w
Ġd en
Ġd ays
Ġs ide
he re
Ġf eder
ric t
ra ft
Ġfor ces
Ġn amed
Ġpar k
Ġs on
Ġf all
Ġf oot
Ġcon cer
Ġwor d
e ad
Ġaug ust
Ġr iver
Ġc e
u ary
d le
Ġs old
Ġorigin al
Ġob ject
Ġch ina
ot t
Ġb er
Ġsignific ant
Ġj ud
Ġthe ory
o red
Ġro le
o x
Ġdis co
Ġeconom ic
it ive
Ġsc ience
Ġprof ess
ap e
Ġeduc ation
Ġs il
Ġatt empt
ru ction
Ġth us
Ġk ind
Ġon ce
l o
Ġbl ock
Ġhe n
Ġse pt
ent ial
Ġf ather
a i
at ors
Ġh op
Ġto wn
Ġn av
Ġyoun g
Ġke ep
Ġr u
Ġinst it
Ġse par
Ġthough t
Ġf ull
Ġob s
et ic
ag ue
Ġinv est
Ġde ce
Ġle ar
Ġg ir
Ġs ound
Ġestab lished
ad a
Ġen ergy
Ġcol or
Ġwill iam
Ġn ight
Ġb ur
Ġto tal
Ġst ory
Ġ3 0
Ġen c
m ing
Ġwrit ten
Ġhe av
Ġinform ation
Ġcent er
Ġspec ies
Ġmater ial
Ġm omm
Ġd est
g y
Ġse en
Ġear li
Ġnat ural
Ġe ither
Ġd ata
as ter
ak en
Ġr ather
Ġinst ead
Ġl ive
Ġe th
Ġcre ated
ab ility
Ġcoun cil
Ġgre en
i ate
Ġh ol
Ġal most
Ġag re
Ġprodu ced
Ġpri v
Ġde b
Ġw ind
Ġw a
Ġstand ard
Ġchrist ian
Ġas k
Ġb an
l s
Ġbe gin
Ġsy n
Ġen v
Ġcomp et
Ġbu ilt
Ġf ire
Ġe at
Ġj une
Ġfun ction
h m
Ġad min
Ġman ag
Ġcal if
l in
Ġth ings
ac y
r il
Ġright s
p s
c hes
Ġ 0
se qu
Ġdem oc
Ġs en
Ġprot ect
Ġschool s
as ing
Ġjan uary
Ġc op
b it
Ġposs ible
Ġc y
Ġb or
Ġac ross
Ġbro ad
Ġmomm y
v al
Ġameric a
Ġle ast
Ġa ra
s h
Ġst y
Ġso v
ec ially
Ġesp ecially
c ing
Ġcolle ge
Ġ2 5
l ine
Ġimp ro
Ġdescrib ed
Ġs an
Ġcer tain
Ġsov iet
om s
Ġgerm any
Ġsh ip
g o
c raft
Ġv ict
Ġd er
Ġn orm
o ber
Ġmid dle
eren ce
w are
Ġp ay
Ġg old
Ġapp e
Ġwee k
her n
Ġking dom
Ġoct ober
Ġdece mber
Ġsept ember
Ġju ly
Ġge or
Ġdep art
Ġadmin ist
Ġann oun
Ġor d
Ġh om
Ġlit er
Ġmark et
Ġp ast
Ġplay ed
Ġp en
Ġsu ff
Ġc am
Ġpr inc
re w
Ġgr and
Ġrec ogn
Ġrece ived
g s
Ġexp ress
Ġaust ral
Ġs qu
Ġwork ing
Ġre ally
Ġtyp e
us h
t a
r ight
y al
Ġme ans
ie f
Ġfre qu
ad es
ve red
Ġab le
Ġtra vel
Ġfore ign
ific ation
Ġd ied
m a
Ġco ast
le x
ther n
Ġvi ol
Ġm other
an a
Ġh it
Ġprev ious
Ġs el
s y
ir on
Ġfr ance
Ġf ail
Ġcalif orn
u el
Ġd ou
Ġ ill
Ġter rit
Ġp red
Ġsp an
f er
Ġhu h
Ġnort hern
c le
Ġhig her
ct ions
Ġcomm it
Ġgener ally
Ġemp ire
Ġcomm and
uc le
b ur
Ġgr ound
Ġche m
Ġb ase
c he
Ġstart ed
Ġbab y
al d
ne y
Ġc ut
ver age
ens ive
o o
ol ic
Ġel se
Ġcommun ity
Ġap ril
Ġqu est
Ġout side
Ġpro b
Ġno ve
Ġenv iron
Ġp ie
Ġsou thern
Ġst op
Ġav ail
Ġsa w
Ġcontin ued
v ision
Ġnove mber
Ġbuild ing
Ġne g
il le
Ġcaliforn ia
ines e
Ġoff ice
Ġpart s
Ġo x
Ġh our
Ġf ish
2 0
Ġen ough
st and
Ġh m
Ġr ich
Ġcap ital
Ġd av
Ġb orn
Ġprinc ip
Ġpos ition
Ġt ar
in o
Ġalb um
Ġf ac
Ġf ig
Ġfeder al
Ġpol ice
Ġrad io
Ġtem per
Ġbat tle
Ġlangu ages
Ġn ucle
x ic
ac hed
Ġb ud
Ġch inese
Ġ201 0
Ġmove ment
read y
ain ed
Ġme et
Ġ1 00
Ġac cept
Ġtr ade
Ġcol l
Ġeng land
Ġmem ber
Ġta x
Ġsub ject
t ic
Ġre n
un d
Ġf em
Ġt ro
Ġvers ion
Ġl ower
ain s
Ġproble m
Ġpo in
it ing
Ġlo st
Ġal ready
om p
Ġscient ists
Ġd omin
Ġh or
Ġm ach
Ġfin al
Ġbl ue
Ġthrough out
Ġd one
os ition
Ġex ec
Ġdet erm
Ġrelig ious
Ġem ploy
Ġcomp an
Ġex am
Ġr ange
Ġbo y
Ġsoc iety
Ġd am
Ġcomple te
ict ion
f ace
Ġu k
Ġdes p
Ġmod el
Ġf av
Ġnum bers
Ġsa f
Ġhim self
Ġre act
Ġwas hing
Ġle ague
Ġfun d
Ġphil os
ist an
av es
Ġs am
ud e
re me
Ġc ast
th ing
Ġmonth s
Ġanim als
Ġdid n
Ġse x
Ġconn ect
Ġa ha
al es
Ġli ber
Ġh ost
Ġv ot
Ġtradition al
Ġro ad
Ġbre ak
Ġf oc
Ġcon cept
Ġcomput er
Ġacc ount
id ing
Ġf a
Ġg ave
Ġtele vision
Ġcult ure
Ġab ove
om b
ar ily
Ġwho se
a ur
Ġant i
Ġmag n
Ġt aken
Ġn ation
ra el
ic ult
Ġr ail
Ġa ch
Ġb it
Ġp ict
um b
Ġlead ers
Ġreg ard
Ġfr ont
Ġcomple x
Ġavail able
Ġeas tern
Ġd oc
Ġlo ve
Ġd ig
Ġb al
Ġv ide
Ġc ross
Ġenviron ment
Ġ201 1
Ġh on
Ġwhe ther
Ġc ath
in al
Ġla un
r or
add y
Ġt en
Ġd u
er ous
Ġr ate
Ġf ight
Ġide a
er y
ap s
c ul
Ġb ill
Ġke y
Ġup on
Ġcon gress
Ġf ut
Ġy et
Ġcan n
Ġsec ret
a f
Ġl iving
Ġl ou
f act
a ign
l am
Ġd ol
im ent
Ġch o
Ġ201 2
pl es
ar c
Ġl ond
Ġbro ther
and s
Ġa ward
Ġwashing ton
Ġev idence
Ġallow ed
Ġwor ds
Ġgree k
Ġtechn ology
Ġt alk
h ib
Ġterm s
Ġlond on
Ġl og
Ġcamp aign
Ġconstit ution
ar ian
Ġe ver
Ġ2 1
Ġbo x
ic le
p ut
ren ts
Ġfe b
Ġd addy
Ġit self
Ġafric a
Ġ5 0
Ġmin ister
Ġdesp ite
Ġal ways
b an
Ġab s
Ġf low
ar ies
imate ly
i que
Ġc ause
Ġ199 0
Ġst ep
ig r
Ġw all
Ġso ft
Ġacc ess
Ġgl ob
Ġm ill
du ct
Ġl ot
Ġfollow ed
Ġele ction
Ġindust ry
Ġhy d
Ġform ed
Ġreport ed
Ã ¡
Ġest im
Ġis rael
Ġrec ent
Ġ q
Ġo pt
Ġp ow
Ġnet work
Ġent ire
Ġcrit ic
Ġm er
Ġadd ed
it es
Ġgr ad
Ġam ount
Ġdiff icult
Ġc ities
Ġso on
ol s
Ġev ents
Ġst ri
Ġse ven
Ġproble ms
Ġdemoc r
Ġanc ient
Ġsch ol
Ġh ot
Ġind ia
ru ary
Ġapp lic
Ġr is
ri a
Ġte x
Ġst ra
Ġfeb ruary
Ġad op
Ġbr ing
Ġintrodu ced
Ġisland s
Ġint e
Ġac ad
Ġf er
pp ed
Ġafric an
Ġe y
Ġa ud
Ġe ight
Ġsty le
Ġt rib
Ġp sy
Ġind ic
ch an
et h
e f
Ġcl ub
Ġresp ect
l im
Ġex cept
Ġserv ices
Ġro yal
Ġf ell
Ġmu se
Ġcompan ies
us es
Ġrel ative
Ġ198 0
Ġdis e
Ġcol on
Ġse em
Ġbir th
Ġlaw s
ow s
Ġsel f
Ġplay ers
Ġresp ons
Ġ200 8
Ġru le
Ġannoun ced
Ġparticular ly
d en
Ġl os
Ġpo ly
Ġd om
Ġbook s
Ġmult ip
i ers
Ġpriv ate
Ġform s
Ġmo ved
Ġc ases
Ġ200 9
Ġara b
Ġrel ated
Ġdra w
sel ves
Ġa verage
ur ity
Ġco ok
Ġspe ed
Ġsub st
id ge
Ġincre ased
Ġc reat
Ġchang es
Ġp le
Ġph ot
Ġpolic y
Ġevent ually
Ġsur v
ri an
Ġmuse um
Ġvar i
a ff
Ġ200 0
Ġinflu ence
Ġacad em
Ġtrans port
Ġind ian
on st
Ġg as
Ġo il
Ġar ri
Ġprov ide
Ġcons ist
Ġc it
Ġm ac
ke y
Ġu l
ce ed
h am
Ġno vel
Ġc and
Ġpa ul
Ġincre asing
Ġ Â
Ġpar li
m ed
Ġ19 0
Ġ201 3
Ġm hm
Ġm akes
ag o
Ġsuccess ful
Ġs ize
um ents
Ġlike ly
Ġbr ought
ro wn
ate g
Ġm ix
Ġstud ies
Ġw ood
ar a
m on
Ġf ace
Ġ200 7
Ġis lam
Ġg un
Ġdis pl
Ġp un
Ġnear ly
Ġde g
p r
at ory
e e
eng th
Ġa st
Ġmed ia
Ġsour ce
k y
Ġj our
re st
p ect
Ġcle ar
Ġfut ure
Ġmic ro
Ġkill ed
Ġwork ers
ograph y
Ġb ank
Ġn ations
Ġrequ ired
Ġindivid ual
Ġconsid er
Ġde al
Ġpsy ch
Ġref orm
Ġdef in
Ġn ature
Ġparli ament
Ġmain tain
Ġval ue
Ġspan ish
Ġach ie
Ġm ess
Ġ197 0
a ut
at ives
Ġa ction
Ġl ay
Ġbec om
Ġele ments
Ġearli er
Ġbegin ning
Ġm art
ra p
Ġb ow
Ġc ard
Ġexec ut
Ġwrit ing
Ġincre ase
Ġlat in
Ġpap er
Ġloc ated
Ġfe el
Ġcons erv
o id
Ġthem selves
Ġeconom y
Ġch ief
Ġleg al
Ġto ld
Ġstruct ure
n y
Ġdoes n
i res
Ġb illion
b on
l ation
in ted
it or
Ġl in
f or
Ġent er
Ġag o
Ġt aking
Ġunder stand
Ġcap t
he st
Ġmean ing
b or
Ġprot est
Ġspec ific
Ġte xt
Ġ ess
Ġd ut
Ġfam il
ic a
Ġa lex
Ġme chan
Ġassoc iated
Ġ18 9
Ġremain ed
Ġplay ing
m p
Ġl ack
Ġ201 4
Ġh all
Ġdepart ment
Ġsp ok
Ġre ason
Ġw alk
e x
Ġreg ular
t t
Ġvide o
Ġ4 0
Ġ &
Ġman u
Ġsec urity
Ġmajor ity
Ġb ad
o f
Ġpe ace
Ġqu ick
Ġgo es
an ch
Ġofficial s
Ġne cess
Ġcon vent
Ġem erg
Ġair craft
Ġk h
Ġtr y
Ġpo or
Ġpartic ip
ap t
Ġrelations hip
Ġre b
Ġcomm erc
Ġst ay
Ġma x
Ġro b
Ġlong er
Ġm el
Ġj er
Ġo ce
Ġrul es
Ġme xic
Ġrev olution
Ġt able
Ġbelie ved
Ġruss ian
Ġem b
Ġlead ing
ib ility
Ġsy mb
Ġtyp ically
Ġappro x
r ast
am s
n s
Ġcomm ission
Ġprov ided
Ġinclud es
Ġperson al
Ġca used
Ġelect ron
Ġbo ard
Ġm m
k a
Ġpre vent
o res
Ġh ur
Ġtyp es
Ġpract ice
le ment
Ġdist in
Ġc ust
5 0
Ġc ra
Ġp ick
Ġnew s
Ġus es
Ġsur face
Ġindepend ent
Ġst ation
Ġmanu fact
Ġs we
Ġf ix
Ġb c
Ġb ene
ur s
Ġpre t
Ġpr ime
if y
Ġ200 6
Ġcons um
Ġpl ant
ing u
w h
Ġwant ed
Ġs le
Ġgrow th
Ġdirect or
Ġstre et
Ġal tern
Ġ2 4
if t
Ġth reat
Ġh am
is es
Ġbro wn
Ġplay er
Ġte ac
Ġn ative
Ġdesign ed
ri al
Ġch amp
Ġinst r
Ġpa rents
Ġsum mer
Ġne igh
Ġro om
a x
Ġc ode
Ġl ink
Ġrefer red
t ies
Ġ196 0
er t
Ġwat ch
Ġcolle ct
pt ion
Ġspe ak
Ġw ild
cl us
Ġli br
Ġch air
ach ing
it ch
Ġgeor ge
Ġlim ited
Ġdef e
ly ing
Ġs ell
Ġqu ant
Ġc od
is c
Ġp u
Ġcan ada
Ġwho le
Ġr ank
Ġbeh ind
Ġcommun ic
u ation
Ġj ames
Ġm c
Ġhyd ro
Ġm ich
en ces
Ġs ite
Ġth ing
Ġassoc iation
Ġ201 5
Ġg ar
Ġruss ia
il ities
he ad
Ġapp o
Ġmat hem
Ġlar ger
Ġrequ ire
Ġ ice
Ġsub sequ
Ġsp ir
Ġlet ter
Ġcath olic
Ġprob ably
gy pt
Ġinvol ved
p e
ound s
Ġeffect s
Ġser ved
an ia
Ġmost ly
Ġf le
Ġth ous
ur ies
Ġphys ical
ut es
Ġfilm s
Ġcount y
Ġc ry
Ġappe ared
Ġn ames
' ve
Ġdav id
Ġmus lim
Ġv o
Ġfar m
he l
Ġal right
Ġr out
Ġmin or
o on
id ents
Ġf if
Ġe gypt
c ast
Ġw ear
Ġconst ruction
Ġfoot ball
Ġ200 5
ou ra
a pp
e en
Ġ201 6
Ġorgan ization
Ġe c
w or
Ġp an
Ġl oss
re g
Ġse qu
Ġc ub
Ġcann ot
Ġb ed
Ġ18 6
Ġelect ric
r ay
Ġnucle ar
Ġr ap
Ġk ids
Ġvis it
Ġhig hest
Ġinter p
Ġbe ar
Ġestab lish
Ġh oney
Ġask ed
Ġbe low
h ood
Ġleg is
Ġresult s
Ġlab or
Ġphilos oph
Ġn ice
Ġreturn ed
Ġwe ap
Ġfl o
Ġwork ed
Ġmat ter
Ġr ac
Ġang el
Ġelect ed
Ġfeat ures
Ġbrit ain
Ġobs er
ribut ed
Ġer a
Ġgre ater
Ġcit iz
ve re
f ord
Ġshow s
ic ient
Ġjapan ese
w er
ic les
Ġd an
Ġocc up
Ġpur p
Ġl ength
it ude
Ġcom es
st on
Ġ2 3
Ġem per
Ġadd ress
Ġpress ure
Ġconst ant
Ġg al
Ġprodu ce
Ġcon duct
Ġsu re
Ġv ill
Ġsepar ate
Ġtar get
Ġthere fore
ro y
Ġun it
Ġpoin ts
se mb
Ġquest ion
Ġins ide
Ġc orn
Ġs and
Ġj ack
Ġcon ver
ll ed
Ġprogram s
Ġfound ed
ar i
Ġcond itions
Ġdisc uss
as ion
um e
' d
Ġprim ary
op e
Ġd ru
Ġcare er
Ġr at
Ġb ul
Ġtit le
Ġproduct s
Ġremain s
Ġglob al
Ġtr ue
Ġl ines
Ã ¶
Ġele ment
Ġsp read
n es
Ġf ast
as c
Ġul t
Ġjew ish
Ġe t
Ġjo b
Ġchang ed
Ġm ur
Ġst ated
Ġpre c
Ġdef ined
Ġwide ly
Ġcommerc ial
Ġt ou
ag ed
Ġs low
Ġfin anc
ou th
Ġbeh av
ut ions
Ġd yn
en ced
Ġrele ase
n al
Ġm om
Ġfor t
Ġ18 8
Ġfri ends
Ġperform ance
Ġde ad
Ġb en
Ġmo v
Ġchem ical
Ġget ting
Ġinte gr
Ġbl ood
Ġfam ous
Ġch all
Ġsmall er
Ġhe ar
Ġprop osed
bur g
Ġcre ate
Ġhour s
Ġoce an
Ġ18 7
Ġd im
c om
Ġdiv ision
Ġaustral ia
Ġch ic
Ġp ack
Ġsh ar
iz ing
Ġk ore
ain t
Ġag ric
Ġlead er
Ġcult ural
Ġ =
Ġc up
Ġact ually
Ġmeas ure
Ġtra ining
Ġorigin ally
ul ated
Ġgir l
is ions
Ġ2 2
m ar
Ġh ous
r ated
Ġmed ical
m en
Ġiss ue
s s
Ġd augh
Ġk it
Ġpri or
ul f
ab les
qu ote
Ġthan k
Ġde ep
Ġ201 7
Ġrecord ed
ill s
Ġblock quote
pp er
Ġapp l
a el
Ġass ist
Ġcommon ly
Ġlou is
Ġdist rict
Ġcar ry
and ed
Ġcl imate
Ġz e
Ġstud ent
Ġdec ided
ot ed
i i
li ke
Ġital ian
Ġagric ult
m y
Ġconf lic
Ġsp orts
Ġchar les
Ġsoft ware
Ġtr ying
Ġcommit te
ens ion
Ġinvest ig
Ġterrit ory
Ġdise ase
Ġob ama
Ġco ver
Ġcontin u
Ġas semb
Ġhun g
Ġscient ific
c ks
Ġhun d
Ġfr anc
an ced
o h
Ġsu p
Ġsn ow
Ġfl ight
u als
Ġn ar
Ġgrow ing
on se
Ġameric ans
Ġhe art
Ġcl os
Ġhelp ed
am b
Ġfri end
Ġgr ant
Ġth om
Ġu h
Ġhund red
Ġrese arc
iel ds
Ġp il
ent al
Ġce le
Ġl un
f l
Ġw il
Ġ201 8
Ġanim al
in ary
Ġlevel s
Ġschol ars
Ġw ife
Ġm ission
ri age
Ġle ave
Ġital y
it ect
Ġneed ed
Ġrev iew
Ġbelie ve
z z
Ġlook ing
n ers
Ġve h
Ġqu ar
o le
Ġrelig ion
Ġsc re
se c
Ġhistor ical
Ġdoc ument
Ġrun ning
Ġl ived
ys is
Ġdisco vered
Ġresp onse
Ġ200 1
c ript
Ġrepl aced
ut h
Ġh i
Ġemper or
Ġarch itect
ist ics
Ġr ound
Ġr h
Ġres ist
Ġmet al
Ġexper ience
en ing
m i
Ġfamil ies
Ġestim ated
it z
Ġcand id
Ġindepend ence
Ġhen ry
Ġcharact ers
Ġdirect ly
Ġsupport ed
Ġ200 4
Ġl u
Ġf el
Ġrom e
Ġstart ing
Ġdec ision
ant ic
Ġcol d
land s
r s
Ġ ic
Ġs ense
Ġac qu
r is
Ġre ached
Ġcom ing
Ġpl at
Ġvar iety
Ġfore st
Ġrem ember
re ct
o es
ol a
Ġimm ed
Ġfem ale
Ġhapp ened
Ġsle ep
Ġro bert
mit ted
u it
e ch
Ġwom an
ist ry
Ġto m
Ġiss ues
Ġt v
Ġv ote
Ġun its
Ġimmed iate
as ons
Ġes c
Ġl ad
Ġtra in
Ġv ia
Ġoper ation
Ġintern et
Ġbor der
rib ution
Ġhe ll
Ġins p
im um
Ġeth n
Ġp ath
Ġfre ed
Ġst ru
Ġlarge ly
w here
Ġheav y
Ġdo g
Ġ2 6
Ġpar is
Ġ201 9
y m
er o
Ġf ra
Ġsour ces
qu es
res p
Ġadminist ration
u se
Ġt al
Ġl ake
Ġimp lement
Ġpop e
Ġoper ations
Ġdest roy
led ge
Ġnum erous
Ġr are
Ġmed ic
Ġr ace
p ly
Ġv en
Ġpro gress
Ġbene f
Ġtra ck
Ġc red
Ġrecord s
k et
Ġc ere
Ġp ac
Ġex c
Ġtemper ature
Ġset t
Ġch ann
Ã Ń
Ġh osp
w ood
iv ity
Ġapprox imately
Ġopen ed
h ab
Ġpass ed
Ġcomp ared
Ġfor ced
Ġimpro ve
Ġr ain
Ġro ll
Ġread y
g a
Ġdemocr atic
o ver
Ġas ia
Ġl ives
Ġsu sp
Ġf est
Ġrec ently
Ġd ial
Ġact ive
Ġb ay
Ġcommitte e
Ġmathem at
Ġhum ans
Ġcele br
w ide
id a
Ġaddition al
Ġgovern or
Ġt ree
Ġep is
Ġt un
Ġb ound
Ġst age
Ġha ir
Ġdis p
Ġexper iment
Ġcar bon
Ġt or
Ġquick ly
Ġn ine
Ġpet er
Ġp ra
Ġmay be
u ff
Ġset tle
o e
Ġr an
Ġfav or
o ff
ber g
Ġs ens
Ġspir it
g ing
Ġdispl ay
Ġauthor ity
Ġm ind
ien ces
Ġdet ail
Ġindust rial
Ġy ell
Ġris k
Ġsay ing
Ġthom as
Ġlibr ary
at t
Ġmo le
Ġchic ago
Ġn omin
Ġsc ale
Ġnav y
Ġh yp
por ary
Ġro t
Ġdr ink
Ġclaim ed
Ġd ark
Ġto wards
Ġcent re
us ing
ag n
Ġmag az
Ġb urn
Ġtreat ment
Ġ2 8
Ġbas ic
Ġres our
Ġhigh ly
Ġcont ract
Ġhand s
Ġal le
augh t
Ġproper ty
Ġjo ined
Ġen s
Ġext reme
Ġcour se
Ġm ad
Ġref lect
Ġtreat y
ul ations
Ġ2 7
in i
Ġsy m
Ġexam ples
Ġteam s
Ġstat us
Ġw ol
Ġis n
Ġm un
Ġturn ed
Ġ6 0
Ġim per
Ġd ro
Ġwrit e
ast ic
Ġdem onst
al ed
ig er
Ġperform ed
Ġtro ops
Ġfr ank
Ġcon cent
Ġsim ple
Ġc ru
Ġadop ted
i ents
Ġreg ions
Ġresearc hers
Ġg i
Ġst ars
Ġa h
Ġfinanc ial
Ġpot ential
Ġf air
Ġ200 3
Ġrich ard
Ġmultip le
v iew
Ġwh om
iver se
Ġsh are
resp ond
Ġs ac
Ġm ary
Ġd in
Ġcor respond
Ġcitiz ens
Ġpart ies
Ġpict ure
b ody
d e
Ã ¼
Ġagre ement
a q
Ġj ose
Ġend ed
Ġpl aced
em s
ress ion
Ġat l
Ġbud d
Ġdol l
b ack
ers on
Ġelect r
Ġw ays
Ġ20 20
ph one
Ġst ories
and er
Ġwin ter
Ġcell s
n am
Ġexp ected
Ġmach ine
Ġbelie f
i os
Ġd ang
st e
re am
Ä ģ
Ġshow ed
Ġnot ed
Ġfin ally
Ġcust om
Ġold er
Ġbas is
ous ly
Ġ8 0
Ġon es
Ġconst ruct
Ġthe at
Ġmexic o
n el
ign ed
Ġwar s
Ġin n
Ġpro te
ip s
gr ound
Ġcoun ter
Ġpret ty
Ġsqu are
Ġin j
cl es
Ġre ject
Ġob tain
Ġrap id
Ġt akes
et y
Ġpie ce
Ġmethod s
k en
Ã ³
Ġcent uries
Ġtrans l
Ġcon v
Ġpl ants
c ies
y r
Ġsh own
Ġt im
Ġw al
Ġapp le
Ġanal ysis
it ation
Ġex ch
Ġcont em
Ġ18 4
air s
Ġinit ially
r ound
Ġimp act
on ents
Ġf it
Ġsp ent
Ġmar riage
Ġdistin ct
Ġr ise
Ġmain ly
Ġre ve
Ġdaugh ter
Ġser ious
Ġpl aces
Ġknow ledge
Ġsign ed
Ġdo ct
Ġdeg ree
ap er
Ġ200 2
Ġrepublic an
Ġap art
Ġpr ison
Ġse lect
k i
Ġm ale
Ġl if
Ġaut om
Ġchamp ions
Ġe gg
Ġart icle
Ġcor por
ad ed
ill ed
Ġjour nal
ok e
ur a
Ġlat ter
is ation
Ġcam er
Ġcle an
Ġangel es
Ġc ateg
Ġinstit ute
y ear
id er
Ġpr in
Ġsh ot
ian ce
Ġa x
it er
Ġb ird
Ġmo b
w ise
Ġl ord
b our
os es
Ġrem o
Ġsp ect
Ġsim ply
ac hes
Ġmo s
p ed
Ġsw ed
Ġappro ach
Ġo s
Ġmar ried
Ġclass ical
Ġactiv ity
Ġmil k
Ġun like
Ġv an
Ġdiv ided
Ġsuggest ed
Ġthe ore
Ġab ility
Ġfig ure
h ol
Ġ195 0
Ġpl ans
Ġmem ory
ress ed
Ġtrans fer
Ġgiv ing
ren g
Ġpat tern
Ġprevious ly
Ġany thing
l or
Ġam b
Ġdef ense
Ġd ate
Ġh at
Ġwe ight
Ġlet ters
Ġspe ech
Ġinter act
Ġir on
Ġrelative ly
Ġsp ain
se y
Ġwee ks
as k
Ġm ention
Ġd ie
il es
Ġfour th
ort un
Ġwa it
Ġst ore
ell ig
Ġcontain s
av ing
Ġfl u
Ġcontin ue
Ġbroad cast
iz ations
Ġor th
Ġu m
Ġne ut
Ġcolle ction
Ġide as
Ġext ra
Ġyell ow
Ġfe et
Ġarg ued
ve y
Ġse at
Ġmus ical
d a
Ġsp l
Ġar r
Ġcurrent ly
Ġa w
Ġeff orts
Ġco al
Ġtrans form
ab or
Ġa im
Ġst aff
Ġse ction
Ġp ig
Ġmount ain
c an
Ġl ic
Ġv ac
b c
Ġfl or
Ġj ul
Ġrep e
Ġ199 9
ol ved
Ġmo on
Ġd ip
Ġcal end
Ġprim arily
f ect
ism s
Ġal g
b i
Ġcont rast
Ġ iv
Ġch ap
Ġexecut ive
Ġo ly
Ġpol l
Ġst reng
Ġsur round
m ission
Ġar ts
Ġcont act
Ġbu y
Ġm ir
Ġthous ands
Ġpro min
Ġdis s
Ġur ban
Ġc art
Ġcomp ar
Ġlook s
Ġfun ctions
Ġoly mp
Ġw r
Ġp it
Ġm is
Ġg ard
Ġqu ality
Ġpow ers
Ġneed s
Ġatt ention
Ġreg ional
Ġdri ve
Ġgo al
Ġcontro vers
Ġ3 1
Ġatt ract
Ġs ar
Ġs aint
Ġdo ctor
Ġwant s
Ġb omb
Ġdist ance
Ġf at
Ġint ellig
Ġattack s
Ġal t
Ġass um
Ġnorm al
Ġlaun ched
Ġmo ving
Ġprofess ional
f ield
p a
Ġac id
Ġmot or
Ġweap ons
Ġcar ried
Ġbe g
Ġbe y
Ġinc or
Ġsh oot
Ġprofess or
Ġchar ge
Ġsc ott
Ġc ab
Ġsong s
Ġsex ual
Ġm ut
Ġmich ael
Ġ2 9
Ġagre ed
Ġbecom ing
Ġth row
Ġ Î
ot hes
Ġelect ions
ph as
Ġcomple ted
w ell
Ġliter ature
Ġfranc is
ig ration
Ġfail ed
Ġm orn
Ġii i
Ġdou ble
Ġgu ard
Ġethn ic
Ġhe y
Ġenc oura
Ġislam ic
Ġpo et
est ic
Ġad ult
Ġactiv ities
Ġk ar
Ġst one
Ġgl ass
Ġann ual
ak er
Ġdig ital
Ġinit ial
Ġsc ript
Ġobs erv
Ġ18 3
Ġcar s
Ġprov ides
Ġsold iers
Ġappl ied
Ġtri ed
Ġrespons ible
Ġappo inted
Ġjust ice
ess ion
e y
Ġjew s
Ġj ump
Ġproper ties
Ġc oup
Ġb od
Ġcl osed
ot ic
Ġj es
Ġi re
Ġbuild ings
Ġ +
Ġb ish
Ġr ang
Ġaltern ative
Ġhor se
r ative
Ġb ond
Ġp ak
Ġpos itive
Ġbra in
am ing
o ch
ib ly
Ġobject s
em ents
Ġvir t
Ġinflu enced
Ġa th
Ġu pper
Ġpac ific
Ġsh all
Ġnew sp
b ed
Ġdecl ared
k es
Ġredu ced
Ġship s
oc ks
Ġnecess ary
Ġswe et
Ġequ ip
Ġf ul
Ġtex as
in ian
Ġsm ith
Ġir an
Ġequ al
Ġresult ing
Ġast ron
Ġphilosoph y
h old
Ġmin utes
in et
Ġp ush
Ġdire ction
Ġhe at
Ġm outh
ect s
Ġloc ation
Ġmeet ing
Ġmagaz ine
Ġair port
Ġth ir
Ġconvent ion
Ġaccept ed
Ġfreed om
Ġindivid uals
Ġplan et
ul s
Ġir aq
or ial
Ġi b
op er
Ġdefin ition
Ġire land
Ġcomp os
Ġclass es
Ġsaf ety
Ġgir ls
Ġd a
Ġre ach
Ġb ag
â Ģ
Ġnot hing
i j
Ġcalend ar
Ġon line
Ġ199 8
i ber
t ical
Ġmanag ement
Ġcrit ical
Ġmorn ing
Ġappear s
Ġbe ll
Ġassemb ly
Ġdec ades
Ġopp osition
bo ard
er ve
Ġnot able
Ġw ave
Ġvir gin
Ġo d
Ġequ ival
Ġim age
l ight
Ġk en
Ġart ists
z a
Ġf ields
Ġsp ort
b re
Ġcon c
y a
1 0
ant a
Ġoff ered
e es
v ille
Ġbey ond
Ġb un
Ġev olution
Ġpresident ial
Ġex act
Ġhop e
Ġaf gh
ad ian
Ġarm ed
Ġcom ment
Ġd na
Ġequip ment
ru pt
Ġr ough
Ġcre w
il s
est s
Ġb ri
Ġn ic
at ures
Ġbow l
u k
m et
Ġex hib
Ġl y
Ġc ens
Ġf uel
bo ok
Ġc ro
Ġconflic t
Ġp urch
ad s
on ic
Ġlegis l
Ġflo or
b a
Ġf ro
Ġj un
Ġint ended
Ġprotect ion
Ġg ives
l a
Ġr ing
Ġgre w
Ġbehav ior
Ġr ub
Ġneigh bor
Ġh ill
Ġfight ing
Ġjose ph
Ġcon sequ
Ġtou ch
Ġg all
Ġsub s
Ġpak istan
ste in
Ġpa ir
Ġsaf e
Ġcal cul
Ġhosp ital
Ġco ol
Ġcol umb
Ġem phas
Ġn ap
Ġcont ent
if orm
Ġoff er
Ġoper ating
Ġha w
Ġfe ature
Ġpres ence
Ġimper ial
Ġsymb ol
Ġst ock
Ġevery thing
v a
Ġallow s
Ġdifferen ce
k ing
Ġf ear
Ġdec re
Ġcre ation
Ġfrequ ently
Ġval ues
Ġfl ag
Ġfeat ured
Ġenvironment al
Ġmaterial s
Ġ18 5
Ġjo bs
Ġan s
all ed
Ġsecret ary
Ġbel ong
Ġtw ent
Ġc as
ing er
Ġad j
Ġhon or
Ġapplic ations
Ġg raph
Ġlim it
Ġneg ative
Ġconf erence
Ġcar ol
Ġas pect
Ġval ley
Ġclaim s
il ed
Ġsc ot
Ġgener ation
Ġdut ch
Ġp age
Ġport ug
Ġ199 7
Ġident ified
Ġto ward
Ġsp ring
Ġstru gg
hip s
om en
u ge
on ent
Ġresour ces
ak ers
Ġconf ir
Ġpower ful
Ġmod els
Ġinter view
Ġafgh an
Ġl ie
Ġform al
Ġcomb ined
Ġhe ro
Ġengine ering
in y
Ġw ed
Ġmov ie
Ġcommun ities
Ġder ived
Ġp hen
et er
us ion
g al
Ġc ow
Ġcl im
Ġexp ans
Ġke pt
Ġcr ime
Ġfel t
ic ted
Ġno b
Ġintern al
Ġal one
Ġfoc us
Ġcon qu
Ġn az
Ġdep end
Ġse arch
m ore
ent ed
Ġref erence
Ġcr is
et t
Ġch ance
Ġacadem y
Ġr ab
Ġal ph
Ġag ency
e k
w est
Ġw it
Ġlear n
Ġw el
Ġd ed
Ġwrit er
Ġdist ribution
os h
Ġun ique
Ġra ised
Ġ id
Ġpol ish
Ġt end
Ġsu it
os aur
Ġeff ort
en cies
iz es
im in
Ġ199 6
Ġprov ince
Ġar rest
Ġgrad u
Ġrepresent ed
Ġfa ith
Ġm and
Ġcomp osed
Ġf res
Ġext ended
Ġey es
Ġres idents
Ġf iction
Ġremain ing
Ġpurp ose
Ġser ve
Ġopp ortun
Ġexch ange
Ġme ant
Ġdem and
Ġinstr ument
Ġsol ar
Ġv oc
d p
Ġt ub
Ġh us
Ġmat ch
Ġpr ice
Ġfound ation
Ġachie ve
Ġsign al
Ġoffic ers
ic ip
Ġinc ome
Ġcond ition
Ġfe ed
Ġj ur
Ġsup reme
Ġchann el
Ġcon clud
ate ly
Ġref eren
Ġoccur red
m ark
e w
Ġpre p
r ad
Ġs in
al a
Ġat m
Ġstand ards
Ġ Ã
Ġb ott
ens ity
ic ated
igr ants
Ġmin ute
Ġspe aking
i ke
ot a
Ġpa id
Ġho ly
Ġdom estic
Ġmon t
Ġown ed
Ġsit uation
b and
Ġ7 0
Ġnot e
Ġearli est
Ġplan e
Ġsal es
Ġple ase
Ġd ance
for ce
Ġvol ume
Ġd ar
Ġ199 4
Ġeffect ive
Ġdo or
Ġan th
Ġm it
Ġarri ved
Ġallow ing
Ġgu it
Ġadv ant
Ġfin ished
om y
Ġopp osed
Ġm as
Ġimmediate ly
Ġim ag
Ġir ish
Ġ3 2
Ġg h
Ġover all
Ġref uge
he ast
oc ol
Ġlear ning
Ġbr anch
h aps
Ġ199 1
Ġo l
Ġch am
Ġg ain
ent h
Ġcontem porary
Ġliber al
Ġc row
le ction
Ġarm s
Ġent ered
Ġfest ival
act er
Ġpolit ics
Ġfr ame
Ġim pl
Ġph ase
Ġredu ce
and a
Ġreact ion
Ġ199 2
r ison
Ġg ro
Ġun d
Ġper haps
u a
Ġiss ued
Ġ199 5
Ġexist ence
z il
Ġle aving
Ġquar ter
Ġspec if
an cy
Ġwe b
Ġ9 0
ord in
Ġd ry
c a
on a
Ġsupp ly
Ġviol ence
i ques
Ġrun s
Ġat om
Ġpol and
Ġdist ingu
Ġqu een
Ġcons ists
Ġown ers
Ġp ull
Ġn as
Ġrec omm
od ox
Ġwe ak
Ġ ign
Ġincor por
Ġvers ions
Ġby e
ĠÂ °
Ġmy th
Ġgreat est
Ġb a
Ġord ered
Ġpie ces
it a
Ġdou b
c her
Ġcare ful
Ġr ates
Ġad ver
Ġ3 5
Ġav oid
Ġter ror
um n
Ġadv anced
Ġcan adian
Ġf ru
Ġm aster
Ġdam age
Ġmart in
Ġsome one
Ġcont ribut
Ġresp ond
Ġper man
od es
Ġread ing
Ġsil ver
Ġvo ice
Ġtre es
Ġplay s
r am
Ġpain t
Ġa id
Ġsh ap
Ġsu d
tern al
Ġun iform
Ġinst ance
b ra
Ġresult ed
Ġbe at
Ġvict ory
Ġarr ang
Ġpr ince
Ġpresent ed
il ing
Ġco oper
Ġrepl ace
Ġscre en
Ġin hab
Å į
Ġc ore
Ġmot ion
r ate
om an
Ġmom ent
Ġaustral ian
Ġvict or
Ġset s
g ers
Ġth in
Ġv iet
Ġcap ac
Ġcompet ition
Ġsu c
Ġanal y
Ġg one
Ġun s
Ġdestroy ed
Ġgen e
he t
y th
Ġcomplete ly
Ġatm osp
Ġact s
Ġca uses
Ġrespect ively
Ġe ating
Ġor ient
Ġexpans ion
Ġt an
Ġdev ices
Ġinterp ret
Ġplan ned
Ġadv oc
Ġd ub
Ġnot es
Ġed ition
Ġsen ate
Ġpri ze
Ġw ow
Ġremo ved
id ay
ast y
cept ion
Ġ18 0
pp ing
Ġqu al
Ġbra zil
Ġwr ong
m as
Ġu t
Ġv ary
Ġre tain
Ġuk ra
Ġbri ef
Ġbr idge
Ġpar al
Ġfact ors
ff ic
Ġoffic er
Ġbr and
Ġr ay
est ed
Ġp enn
ir ing
Ġinsp ired
Ġworld wide
Ġsl ight
ic it
a res
Ġcontro lled
Ġact ions
Ġmil es
l om
Ġful ly
Ġtr uck
k n
Ġconn ected
Ġey e
ell ed
Ġsit es
wor ks
Ġl uc
Ġdet ect
Ġview s
ut ed
Ġbe aut
Ġdifferen ces
Ġcris is
Ġo tt
Ġb ang
os is
Ġpal est
is ters
Ġk m
ag an
Ġwin ning
d on
Ġprop os
Ġpromin ent
Ġdis app
Ġstat ement
Ġ18 1
Ġflor ida
olog ist
Ġsuc ceed
Ġcat al
Ġ199 3
Ġsol ution
2 1
ou d
Ġhu ge
e ed
Ġref used
Ġopen ing
or ters
Ġo w
ric k
Ġcan cer
ipp ed
Ġwe alth
Ġcho ice
Ġf al
Ġr and
r m
Ġdirect ed
Ġste el
ith m
Ġopp os
Ġn ut
Ġmount ains
re l
Ġcreat ing
k ins
Ġfig ures
Ġd ail
Ġlaun ch
Ġsh ut
Ġen em
Ġform ation
Ġmed ie
Ġcommun ist
Ġexpress ed
Ġneg ot
Ġ193 0
Ġse vere
Ġtechn iques
Ġkore a
Ġmedie val
Ġincreasing ly
Ġorgan izations
g u
Ġfrequ ency
Ġorth odox
Ġmark ed
Ġst ations
Ġsubsequ ently
Ġpr ay
Ġrecogn ized
ri er
Ġche ck
Ġk id
Ġdisco very
ra cy
Ġex erc
Ġfr an
Ġappear ance
Ġqu ite
Ġ198 9
Ġtr ou
Ġch ron
Ġg a
Ġop in
Ġdail y
Ġwe ather
Ġdesc ript
Ġmedic ine
Ġch ur
Ġre asons
Ġint el
g ar
Ġsp ot
Ġs ister
Ġcon vers
Ġfix ed
qu ar
Ġcor rect
Ġlad y
Ġcrit ics
ag on
Ġsh ape
Ġcomb at
p o
Ġwind ows
Ġfif th
8 0
Ġexper ts
Ġrep orts
Ġsupp osed
Ġproject s
Ġjo int
Ġauth ors
a rent
h ar
Ġdru g
Ġvol un
Ġstud ied
Ġ5 00
i w
er al
s a
Ġunivers al
Ġdefe ated
Ġpr on
Ġconserv ative
Ġintellig ence
Ġun f
Ġanc est
Ġf ly
ir t
Ġse ctor
Ġme at
Ġor ange
ent ially
Ġen j
Ġarch ae
Ġve get
or ter
ig en
Ġv ice
Ġapp arent
Ġobser ved
Ġb ol
Ġbir ds
ad ium
Ġchur ches
Ġguit ar
Ġtown s
Ġpict ures
Ġc rown
Ġox y
Ġhe ard
Ġhydro gen
Ġus ers
Ġsw im
Ġ194 0
Ġauthor ities
Ġchall eng
Ġst ick
Ġre ign
Ġapplic ation
Ġmar ine
Ġsol id
Ġstruct ures
Ġregard ed
r ich
Ġcall s
im al
Ġdo gs
or ation
Ġdeterm ined
Ġequival ent
Ġpolic ies
Ġtheat re
Ġbo ys
ograph ic
Ġoffic ially
an o
Ġl ith
Ġ17 9
Ġ192 0
or ph
Ġp ul
Ġprom ot
v in
im ents
Ġv es
Ġper fect
w in
al and
Ġad m
w ar
Ġt ick
Ġt ape
Ġmon arch
Ġtur k
Ġsubsequ ent
Ġn ick
Ġstr ing
Ġfact or
an i
Ġrest aur
Ġsc he
d own
w ater
Ġdr um
Ġmanufact ure
c ome
l ines
Ġun iverse
Ġte ach
6 0
Ġhundred s
d ing
Ġsur pr
Ġexp anded
Ġunderstand ing
Ġbudd h
Ġbod ies
ce ll
te en
3 0
Ġalex ander
Ġcry st
Ġsk in
Ġcat ch
hen s
Ġyou th
g reg
t ime
Ġconduct ed
t hes
Ġenter tain
g l
Ġdev ice
Ġhur t
Ġs ought
Ġfund ament
Ġg ained
Ġd rop
Ġd iam
and on
Ġli qu
Ġnear by
us al
Ġjes us
Ġteac hers
Ġc ou
Ġbro ke
on ia
Ġexist ing
Ġleaders hip
Ġfin ish
Ġagricult ure
h i
Ġdec ade
ul ate
op p
Ġspl it
e xt
Ġt ail
ill a
Ġag es
Ġad vent
Ġath let
âĢ Ļ
Ġsequ ence
ens ions
Ġtemper atures
g ment
Ġmix ed
Ġ ille
Ġad apt
Ġvill age
Ġf ine
i ations
Ġwith d
Ġaff ect
Ġident ity
Ġrece ive
Ġt on
2 5
ad o
Ġart ist
Ġcom ed
Ġcost s
Ġresist ance
Ġoccur s
Ġus er
Ġlab our
Ġfl at
Ġhold ing
Ġa wards
Ġw ing
Ġch ick
Ġpe ak
Ġspecif ically
Ġacc ur
Ġ vel
Ġb acter
Ġse m
Ġeas ily
al ing
og en
Ġposs ibly
Ġtri p
Ġbo at
Ġdevelop ing
Ġad am
Ġdip lom
Ġor bit
ic i
Ġsc ene
Ġaward ed
if ying
Ġalg or
Ġpl ate
Ġlear ned
Ġmention ed
z y
Ġbas ket
r ine
z en
Ġgr amm
Ġp us
ro l
Ġs ir
or ing
Ġsur vey
Ġab andon
con t
Ġdro pped
or der
Ġrequ ires
igh ter
Ġfollow s
Ġm ap
Ġwe bs
Ġrul ed
Ġz ero
Ġbud get
Ġro se
Ġcontain ing
Ġimport ance
Ġhapp y
Ġc os
Ġfor ward
ord ers
Ġpre m
Ġdeb ate
Ġco vered
olog ists
Ġelectron ic
Ġgeor g
Ġmess age
Ġhe ight
Ġbase ball
Ġdr am
Ġhistor ian
Ġtwent y
Ġs ides
Ġpro ved
Ġbecom es
Ġyoun ger
Ġhell o
Ġsuggest s
Ġphen omen
Ġro w
Ġpre fer
Ġstreng th
am in
Ġepis ode
is her
ro om
Ġis ol
Ġinstit utions
s et
Ġland s
Ġattempt s
Ġst orm
Ġjo in
Ġcomput ers
Ġdep ending
Ġsc en
ar m
Ġref ers
Ġpart ners
Ġed ward
Ġ3 00
Ġprincip le
Ġscot land
Ġpur s
Ġveh icles
Ġb on
Ġcr im
kn own
Ġcy cle
Ġspok en
Ġf red
a ult
Ġstra ight
ag ing
Ġco ff
Ġn it
Ġact ual
k in
Ġh ors
Ġp ure
it an
iet ies
Ġdyn asty
Ġt u
Ġex clus
Ġeas y
Ġp ric
Ġle e
Ġdisc ip
Ġsk y
Ġs ort
Ġenj oy
Ġarchitect ure
i as
Ġold est
Ġseem s
un g
Ġorgan ized
Ġze aland
Ġgra v
Ġas ian
Ġatt end
Ġf u
Ġcomp l
Ġrail way
Ġre ven
er n
Ġext ensive
cl aim
Ġsupp l
Ġinstr uments
Ġhous es
Ġsh ared
Ġz one
Ġphys ics
Ġber lin
Ġrough ly
Ġb es
Ġcont ext
Ġr ic
Ġb ath
Ġinv asion
Ġtest ing
Ġwrit ers
l ers
Ġim ages
Ġe ld
Ġattempt ed
Ġcens us
Ġex ternal
Ġlook ed
Ġsy ria
Ġadvant age
Ġto wer
Ġ4 5
Ġtechn ical
Ġstand ing
Ġjohn son
Ġtr ust
Ġmun icip
Ġoxy gen
Ġs out
Ġan ne
Ġnav al
Ġexper ien
Ġbar b
Ġclose ly
Ġsettle ment
Ġvirgin ia
Ġocc asion
Ġcapt ured
or al
Ġquest ions
Ġw ides
Ġexpl ain
Ġcomb ination
1 1
Ġcour ts
Ġd iet
ed s
Ġst adium
Ġk il
Ġrec ording
Ġpain ting
l av
Ġu til
Ġprov iding
Ġsignificant ly
Ġsa x
Ġkn ew
g on
ad or
4 0
Ġt all
Ġsubst ant
ort ion
Ġcolon ial
Ġnot ably
Ġout put
ic ed
Ġwor th
Ġto y
Ġtyp ical
f are
Ġre in
Ġet c
Ġparal le
Ġst an
Ġstud io
Ġto ols
ip e
Ġm ond
Ġexp ect
Ġcoll abor
Ġfol k
Ġvis ited
Ġbe ach
Ġult imately
Ġm ist
Ġlab el
Ġuse ful
Ġother wise
Ġs om
Ġrank ed
w a
Ġthe rm
Ġcapac ity
Ġl as
Ġsuff ered
c op
ter y
Ġdang erous
Ġj ac
Ġcirc le
Ġcl a
Ġheav ily
Ġcamp us
Ġpract ices
Ġr am
Ġr ide
Ġsp in
Ġtem ple
Ġfarm ers
Ġshe l
Ġfle et
Ġa head
Ġreject ed
Ġsecond ary
Ġsun day
Ġmagn etic
Ġliter ary
wh at
u ing
Ġacadem ic
Ġatl antic
Ġmob ile
Ġafghan istan
Ġbr on
Ġquant um
ap h
Ġevery one
Ġaff ected
Ġtest s
Ġbish op
Ġm cc
Ġgold en
Ġal co
Ġgen etic
Ġbro ken
Ġdescrib es
re es
Ġwhere as
Ġb ot
n ow
Ġpro ced
u le
Ġte aching
Ġprogram ming
Ġt el
Ġ198 6
Ġl ingu
Ġgrant ed
Ġno se
rop ri
Ġfres h
p read
it ors
Ġh in
Ġpos itions
Ġd uck
Ġch ain
Ġacc omp
Ġrout e
Ġwides pread
er ved
Ġdescrib e
Ġro ss
ol es
ic ial
Ġappro ved
Ġmole c
Ġrad iation
Ġd ensity
Ġr ivers
ri e
h ouse
Ġco ordin
Ġ197 9
Ġj im
Ġn fl
i h
Ġa z
Ġbo b
Ġdeterm ine
Ġd ur
Ġn om
Ġ194 5
Ġcap tain
Ġmar s
Ġtra ffic
Ġinf in
ren ce
Ġslight ly
Ġr ice
Ġ197 5
Ġnewsp aper
v i
Ġas h
Ġfail ure
l ife
Ġcommunic ation
al i
Ġpro hib
Ġare n
Ġtrans ition
Ġtw ice
Ġchall en
Ġinst ruct
Ġc ards
Ġexp ensive
Ġoper a
Ġaud ience
Ġstr ateg
Ġph one
Ġhistor ic
Ġsc ore
Ġachie ved
Ġmeas ures
at o
Ġimpro ved
op her
Ġprincip al
os en
Ġpar am
Ġdecl ine
Ġsat ell
Ġb ah
Ġgovernment s
og rap
Ġc el
Ġtr uth
ell ing
Ġst uff
Ġse ats
Ġset ting
Ġrest rict
Ġchang ing
c ious
Ġaff airs
Ġsim pl
r ations
Ġwhe el
Ġju ice
Ġinvol ve
Ġlin ear
Ġthe ories
ch ar
Ġca using
Ġcop y
Ġfrancis co
Ġf ans
Ġcritic ism
Ġrepe ated
an es
Ġpop ulations
Ġhar m
v ant
Ġperman ent
ro ad
Ġr us
Ġposs ess
at ically
Ġcrim inal
Ġfoc used
Ġch art
ag er
Ġe ll
Ġextreme ly
Ġg dp
ac ing
Ġsug ar
Ġshort ly
Ġb ass
Ġgree ce
r d
Ġconf eder
Ġcandid ate
Ġ ion
Ġa ri
Ġplat form
Ġp ump
ne w
ad ing
Ġpre f
Ġmax imum
Ġpar ks
Ġchrist ians
Ġsen ior
Ġconnect ion
Ġadver t
5 00
Ġ198 7
Ġd un
Ġover se
Ġfun ny
Ġgood s
Ġl es
og ue
Ġdis ney
Ġtri al
Ġ198 4
Ġteac her
Ġfundament al
Ġse vent
Ġv ow
ol l
Ġwar m
Ġtradition ally
Ġchristian ity
Ġam end
Ġgen es
Ġprocess es
Ġmanag er
Ġbirth day
Ġpat ri
Ġla ura
Ġterrit ories
Ġ198 5
Ġchampions hip
t les
um in
az z
il i
Ġshe ll
Ġcontain ed
Ġcirc um
Ġabs ol
Ġpol ar
Ġm ah
Ġoper ated
ian a
Ġchrist mas
olog ies
Ġwol f
Ġhus band
Ġs or
Ġr id
Ġatt ended
Ġto ys
ren d
Ġinf ant
r id
Ġ198 2
Ġ198 8
Ġn a
Ġm amm
Ġsl a
Ġdecl ar
Ġentire ly
Ġexpl ained
Ġpopular ity
Ġagricult ural
Ġind ex
Ġc u
Ġcoup le
Ġp ed
Ġm ine
Ġinf ect
Ġb om
Ġtrib es
Ġunivers ities
Ġlist ed
Ġcomp onents
ans as
Ġele v
Ġsk ills
Ġon to
Ġprodu cing
Ġbus h
Ġtur key
Ġch osen
Ġso il
Ġc av
Ġun cle
Ġhom es
Ġan ton
Ġback ground
m iss
im s
Ġro d
Ġegg s
Ġget s
Ġ198 3
Ġbo ston
Ġphys ic
Ġlink ed
Ġa er
Ġv on
Ġbrother s
Ġar ist
Ġtw el
Ġhun ting
Ġadminist rative
Ġt aught
ver se
Ġsyn thes
Ġill ust
Ġregard ing
Ġf ox
ro ll
Ġreal ity
Ġem ot
Ġpartic les
re m
le g
Ġed itor
Ġt ask
Ġsa ve
Ġform at
en ess
Ġk u
Ġab d
Ġ15 0
Ġcomp ounds
Ġbut ter
n d
Ġliqu id
Ġintrodu ction
Ġconcer ns
t ie
ic ks
Ġsimilar ly
if ul
Ġje ff
Ġconfir med
Ġtex ts
Ġa u
Ġnew ly
Ġf lying
Ġh ug
Ġveh icle
r um
Ġnet her
Ġfir m
Ġthink ing
Ġsal t
Ġstop ped
Ġisrael i
Ġabs or
Ġvisit ors
Ġbott om
Ġ196 8
Ġwas n
Ġun p
Ġun able
Ġpublic ation
Ġr ural
Ġsurround ing
Ġmin istry
Ġexpress ion
r im
Ġb apt
Ġun known
w rit
Ġc in
Ġcod ice
h amm
Ġsu st
Ġfind ing
Ġconclud ed
Ġoccup ied
Ġdeg rees
Ġal bert
Ġtransport ation
Ġreve aled
man n
Ġprincip les
Ġobtain ed
s en
f ast
Ġd ivers
Ġhapp en
Ġjur is
Ġt s
Ġw aves
Ġcoff ee
Ġadd ing
Ġc oc
Ġc rop
Ġdefe at
Ġcarol ina
re y
Ġbl ocks
Ġ6 4
Ġext in
ch y
Ġsign s
Ġportug ues
Ġthe rap
Ġcontin ues
cul es
Ġm ental
Ġg rown
Ġele ph
Ġbig gest
Ġf ile
wh ile
Ġpo em
s hip
Ġtre ated
Ġhistor ians
Ġte en
Ġmin imum
Ġdef end
Ġfl ood
Ġportugues e
Ġc d
ot yp
Ġnar row
Ġjack son
ig an
Ġcamer a
Ġbr ight
Ġexp and
Ã ¨
Ġins ur
Ġsound s
Ġadv ance
Ġhe b
Ġcast le
Ġb ure
Ġch rom
Ġtalk ing
Ġf ant
el and
Ġs end
Ġdef ence
ath an
Ġ197 6
Ġfew er
Ġsell ing
the y
Ġw et
Ġm erc
Ġr ival
Ġmanag ed
Ġconstruct ed
Ġt ast
ol n
ric ts
Ġind igen
Ġabsol ute
Ġinvest ment
Ġaspect s
Ġhistor ically
ab eth
Ġpal ace
Ġcolumb ia
Ġin e
ok ing
Ġed ge
Ġrev ol
Ġsit u
Ġsuff icient
Ġk ings
Ġhyp othes
Ġm ort
Ġcall ing
ic on
Ġar th
Ġexp ed
Ġroad s
r as
Ġser ving
Ġsla very
Ġsett led
Ġmathemat ics
Ġ197 3
Ġmass ive
Ġwat ers
Ġcommand er
Ġmaintain ed
Ġemploy ed
Ġel iz
Ġvot es
Ġdoc uments
b ac
Ġimm igrants
Ġsat ur
Ġber n
Ġnether lands
d o
p an
Ġdeath s
Ġindigen ous
Ġrepresent atives
ony m
Ġall iance
Ġeng ines
Ġs ab
Ġnorm ally
an ian
Ġgre g
Ġviet nam
r us
Ġd ream
Ġv ast
Ġneighbor hood
ĠâĢ Ŀ
ash ion
Ġrapid ly
Ġvis ual
Ġsar ah
Ġsac r
Ġt ank
Ġj ones
Ġ196 9
Ġjer sey
Ġm r
Ġmond ay
7 0
Ġst able
y an
Ġcar l
Ġexpl os
Ġmed ium
Ġ197 4
Ġtrad itions
Ġit ems
Ġun c
Ġemerg ed
t ion
Ġa ck
Ġd ress
ig ation
Ġ197 2
Ġw id
Ġs anta
ver ty
Ġbe ars
Ġne ither
Ġhold s
ĠâĢ ľ
Ġbusiness es
Ġded icated
Ġpre par
Ġcomp r
ou red
Ġpo verty
ra in
Ġterm in
Ġgun s
Ġves sel
Ġm es
Ġse mi
Ġpers ian
Ġun us
Ġ3 3
Ġput ting
Ġswed en
un k
os ph
Ġsupp orters
Ġmach ines
i ro
Ġ196 7
Ġinflu ential
Ġpl ot
en a
Ġdecl ined
Ġmathemat ical
Ġspirit ual
Ġpric es
Ġexact ly
Ġentertain ment
Ġexperien ced
Ġl inc
Ġ198 1
Ġshow ing
Ġarg ument
Ġin put
ab et
Ġne p
Ġcont ributed
Ġinstit ution
Ġf oss
Ġtechn ique
Ġpro ceed
Ġno ise
Ġthem e
Ġdu ke
Ġacqu ired
Ġselect ed
Ġsc iences
Ġhouse hold
Ġcomp osition
Ġplan ning
v is
Ġrepres ents
Ġdyn am
Ġgu y
Ġide al
Ġban ks
Ġord ers
Ġnet works
Ġinhab it
Ġp in
el ess
Ġconstitution al
Ġnaz i
ut ation
Ġle w
Ġ197 1
Ġf ought
Ġmay or
Ġaccount s
Ġn iger
Ġpat ients
st ra
Ġas c
Ġle aves
vere ign
Ġb ib
g ian
Ġh ay
Ġha bit
Ġwall s
Ġpen ins
Ġso vereign
Ġtour ism
Ġmuslim s
Ġsym pt
Ġparalle l
Ġlinc oln
he im
ion e
Ġres c
Ġ3 8
Ġk iss
Ġelect ro
Ġge omet
re te
Ġh ang
st one
oun der
Ġâ Ī
Ġpurp oses
Ġso le
Ã ¤
Ġmanufact uring
Ġt enn
Ġl ion
ic ation
Ġus age
Ġgreat ly
Ġphil ipp
1 2
rop ol
Ġve ctor
Ġcandid ates
ur t
Ġwear ing
Ġsw itch
Ġvolun te
Ġf aster
ra w
Ġ3 6
Ġcor ps
Ġprote in
ruct ure
Ġs ick
Ġact ing
Ġfac ilities
or age
as y
Ġ197 8
Ġad ap
Ġott oman
ist ed
ord s
Ġpeop les
Ġconcer ned
Ġb ought
Ġcorpor ation
ce ived
Ġsp end
Ġincre ases
Ġhen ce
Ġrecogn ition
le ts
Ġst ret
Ġne u
anc ing
Ġhar v
Ġcommunic ations
Ġopportun ity
et ime
Ġdist ricts
i at
Ġp c
Ġst rict
Ġmove ments
Ġhe rit
Ġsl aves
Ġb bc
y er
Ġfru it
Ġcirc uit
Ġmeas ured
Ġcy cl
s es
is hes
Ġk ick
Ġsa v
Ġmar sh
Ġel imin
Ġwil son
Ġal ge
Ġwon der
Ġattack ed
Ġcritic ized
i ar
Ġr ig
Ġtrans lation
Ġtele phone
usal em
Ġchallen ge
Ġleg end
1 5
Ġte eth
Ġukra ine
Ġv ent
Ġaut on
Ġcham ber
Ġkill ing
Ġinn ov
Ġpoet ry
Ġinterp re
Ġje an
st ream
Ġpre ced
Ġve ter
Ġspok e
gr ad
Ġport ray
Ġband s
Ġwilliam s
Ġlay er
quar ters
Ġex ists
Ġsp aces
Ġacc used
Ġn one
ad el
Ġdesign s
Ġjer usalem
Ġmer ch
Ġatmosp here
j a
ol f
Ġstrong ly
Ġs ke
Ġm ama
r ates
Ġlegis lation
Ġestablish ment
Ġ196 5
f all
Ġb ce
Ġres olution
en ger
Ġb ind
Ġpil ot
Ġbasket ball
Ġcoal ition
Ġtr ig
Ġem pt
Ġpro of
Ġacc ident
itz er
Ġm ail
Ġoppos ite
Ġcap able
Ġmult i
Ġcontinu ous
Ġalong side
Ġfell ow
Ġh orn
Ġal f
Ġcol ors
ian o
Ġjud ge
Ġarab ic
Ġtheore m
Ġag ree
ze ch
Ġo t
Ġequ ation
Ġhous ing
Ġor che
Ġsit ting
r ane
Ġsupport ing
Ġnas a
b ing
Ġw ire
Ġi p
Ġpract ical
Ġ4 00
Ġhelp s
Ġdomin ated
Ġeliz abeth
Ġinit i
Ġf illed
ock ed
Ġegypt ian
Ġkore an
Ġd ates
Ġess ential
Ġcub a
Ġt iss
Ġinf rast
Ġgen der
ok ed
Ġthan ks
Ġdis put
Ġapp ropri
ict ions
Ġ197 7
Ġf ashion
il ly
Ġmor al
Ġintel lect
Ġcomp lic
Ġrequ est
Ġ17 8
Ġjuris d
Ġc zech
Ġen force
ut her
Ġfish ing
Ġr ising
Ġprep ared
z o
Ġrat io
Ġk a
Ġanal og
Ġb ible
Ġexper t
Ġinterest s
Ġdru gs
Ġab ol
Ġconcer t
Ġcharacter istics
Ġexp ort
Ġwebs ite
Ġbo om
Ġmem orial
Ġinterest ed
g n
il it
Ġdescript ion
Ġack now
b al
Ġall ies
Ġexcept ion
Ġcl oth
Ġprodu cer
Ġ6 5
Ġprocess ing
Ġext ent
Ġview ed
Ġa k
Ġph r
bur gh
Ġlith u
Ġb ull
Ġclass ic
Ġsucceed ed
Ġst ores
Ġexper iments
Ġdemoc racy
Ġpun ish
Ġhy per
th is
Ġinter f
Ġimm igration
Ġy ep
Ġatom ic
Ġopin ion
Ġwas te
so ft
Ġtit led
Ġcateg ory
Ġra ise
Ġdi agn
Ġmill ions
Ġ7 5
Ġt iny
Ġar c
Ġgard en
Ġd ir
Ġdetail s
Ġe b
Ġens ure
Ġcomed y
Ġport ion
t es
Ġany one
Ġchar l
Ġoper ate
Ġalle ged
id el
Ġg ay
Ġpron oun
Ġcl ock
Ġqu e
Ġho le
Ġsout heast
Ġf an
Ġgr ass
Ġhead quarters
Ġc aught
Ġm ent
Ġexp os
Ġolymp ic
Ġ Ï
in ity
Ġdin osaur
st ood
Ġsp ending
Ġprot ected
Ġstr ate
Ġgi ant
Ġ3 4
is p
Ġ196 4
Ġsat is
Ġs ie
Ġt y
Ġoff ers
Ġob l
Ġconserv ation
Ġbeaut iful
Ġpenins ula
2 4
Ġhol ly
Ġcol ony
yl v
Ġwit ness
ur ally
Ġoh io
Ġcos m
ĠÂ £
Ġtwel ve
at he
Ġpub lish
Ġherit age
Ġeas ier
Ġhapp ens
Ġind o
m ers
Ġg er
Ġsh if
Ġend ing
Ġcan al
r an
ce ler
Ġman ner
Ġinfrast ructure
Ġt ong
Ġph on
Ġadult s
j o
Ġt ues
am eric
Ġbur ied
Ġdri ving
Ġk ent
Ġamount s
ro t
Ġhin du
Ġkn ight
Ġ196 6
Ġkind s
Ġminor ity
Ġ4 9
ill ing
ore n
Ġstre ets
Ġshoot ing
t ra
Ġin du
Ġsepar ated
Ġelectr ical
Ġv it
Ġev olved
Ġac celer
clus ion
Ġastron om
Ġr ib
Ġst orage
Ġde ploy
ant ly
Ġheb rew
op le
f ish
on ian
Ġsur f
Ġclos er
Ġg ulf
iss ance
Ġsl ave
Ġscient ist
Ġse lection
Ġpattern s
Ġbacter ia
Ġ193 9
Ġprotest ant
Ġcab inet
Ġhors es
Ġmod e
Ġcarry ing
it arian
Ġcol our
Ġbr anc
n o
Ġf ried
Ġrel ation
Ġelectric ity
Ġt rop
Ġto ol
Ġstat istics
Ġstrate gy
Ġp ier
Ġreg ist
Ġf inger
Ġcr us
Ġcoast al
Ġstri ke
eng ers
Ġlog ic
Ġcom ic
Ġinterpret ation
Ġdraw ing
Ġabandon ed
Ġpu pp
Ġst ress
Ġsc and
Ġwrit ings
Ġemerg ency
Ġle ban
ang el
ens es
Ġperiod s
Ġrepresent ation
t own
f ort
Ġc able
Ġv ul
Ġcl in
Ġco ach
Ġbl ow
Ġfund ing
Ġvot ed
Ġtues day
in ations
Ġexpl an
Ġemploy ees
Ġdra wn
Ġstep hen
Ġ #
ri x
ak h
Ġf aced
the less
Ġb ac
Ġmicro soft
Ġnever theless
Ġconcer n
i ot
Ġ196 3
Ġstri p
b ut
Ġk er
Ġpl us
Ġcook ie
Ġalco hol
Ġe ve
Ġmean while
Ġin ner
Ġenem y
o is
Ġne ck
Ġeffect ively
Ġlabor atory
Ġbu ck
Ġk in
uck y
Ġind eed
Ġin her
Ġd at
int on
ici ency
Ġmin ing
Ġgrad ually
Ġille gal
o ven
Ġat oms
Ġ196 2
se ll
the re
Ġlim its
Ġre new
Ġind ones
Ġdel ay
Ġbure au
Ġart icles
1 4
Ġro ot
Ġstep s
Ġwed nes
out s
Ġcent ers
Ġsub ur
Ġspeak ers
Ġinhabit ants
Ġsympt oms
Ġleg acy
Ġscott ish
Ġsh oes
y le
ct s
m ond
Ġs ons
Ġm ong
Ġass ess
Ġnob el
Ġte a
b ury
Ġmod ified
Ġgu ess
Ġro ose
ren cy
Ġchar ged
Ġtrans mission
Ġepis odes
Ġswed ish
ylv ania
Ġvis ible
Ġs ed
Ġmy ster
Ġval id
Ġs od
Ġorig ins
Ġalge bra
Ġamend ment
c hen
r at
Ġdomin ant
Ġh an
ud es
Ġgo als
Ġm ere
Ġ3 7
Ġfr anch
Ġrepresent ative
Ġbenef it
Ġall ied
Ġrec onst
Ġident ify
Ġbi ological
Ġschol ar
go ing
Ġw ales
Ġch lor
Ġen h
Ġgener ated
k er
Ġto w
Ġdeb t
Ġindic ate
er ves
Ġtri ang
Ġconsider able
Ġsh ift
Ġdes ert
Ġinc ident
Ġmole cules
Ġrand om
Ġhung ary
Ġt act
vel t
Ġrec ru
Ġsubject s
Ġestim ates
y d
Ġhe m
Ġfr iday
Ġmet ropol
Ġox ford
Ġsuccessful ly
Ġcorrespond ing
Ġcin em
Ġrep rodu
Ġz oo
Ġlead s
Ġb os
igh ters
Ġroose velt
Ġo sc
Ġr ug
Ġsc ul
Ġform ally
Ġ17 7
Ġpass age
Ġconsist ing
Ġwild life
ou ri
Ġdec isions
k o
o oth
Ġup d
uc ks
Ġer ror
Ġelectr ons
Ġdoct ors
Ġarrest ed
Ġch a
Ġbeg ins
Ġcult ures
Ġpolit ic
Ġesc ape
ul ed
Ġconver ted
rane an
Ġfal se
Ġearth qu
Ġhit ler
Ġdise ases
Ġmur der
Ġcomp onent
Ġro les
Ġclass ified
Ġcra ck
Ġcollect ed
Ġinvestig ation
Ġthous and
Ġrefuge es
ot es
Ġaust ria
Ġaud io
Ġ194 8
Ġrepublic ans
Ġcustom ers
Ġ3 9
Ġche ese
Å Ĥ
Ġro ots
Ġap ol
Ġder iv
Ġcho ose
Ġprotest s
Ġwednes day
Ġb read
Ġpart ly
Ġform ing
Ġchar ges
Ġeff icient
Ġeduc ational
Ġinvol ving
Ġtrou ble
iw an
Ġag ents
Ġfood s
ct ors
Ġmar g
ru ption
Ġev al
Ġl ies
Ġpa rent
Ġv ision
Ġbelief s
Ġmunicip al
Ġam az
ik i
Ġaddition ally
id den
Ġcolon ies
Ġs her
Ġlist en
Ġph osph
Ġown er
Ġtre as
Ġr um
Ġlow est
Ġinvol ves
Ġassum ed
Ġvel oc
Ġapp ly
Ġgen re
Ġc ogn
Ġtit les
Ġfavor ite
Ġf ame
ag u
Ġimp oss
Ġtrad ing
Ġconcept s
Ġchem istry
Ġcan on
Ġprote ins
en h
Ġatt ached
Ġatt ributed
Ġunder stood
Ġsurv ived
Ġg ather
Ġr it
Ġloc ations
Ġsal v
p ir
is er
Ġst al
Ġrep utation
Ġnor way
1 6
2 2
id ers
Ġdoct rine
i able
Ġth ick
Ġcal c
Ġs ad
rib ute
Ġmark ets
wor th
av a
Ġarth ur
in ces
Ġcop ies
Ġaccomp an
ric s
Ġexpl ore
Ġmembers hip
Ġadj ust
w s
ar ia
ap se
Ġgr an
Ġass igned
Ġsatell ite
Ġa qu
Ġsub mar
Ġh ub
um my
Ġman us
Ġcons cious
Ġbu ff
Ġvol can
Ġdri ver
t z
Ġs oph
em ic
Ġclass ification
Ġdesc end
Ġta iwan
d y
y ou
Ġp ione
Ġpro l
Ġj azz
Ġhelp ing
Ġj on
Ġprom ote
Ġdri ven
Ġbal ance
Ġ4 8
Ġpen al
Ġy ay
ak s
Ġ194 4
Ġlos ing
n i
ct ic
Ġor b
Ġbenef its
Ġwh ales
Ġsign als
Ġhot el
Ġse asons
Ġm igr
Ġreg ime
Ġexist ed
Ġoccasion ally
Ġt ight
Ġp ear
Ġg ross
Ġth or
ful ly
Ġcontrovers ial
Ġ196 1
Ġturn ing
Ġsocial ist
Ġcontrovers y
Ġc ot
Ġhard ware
sec ut
Ġconcent ration
t ure
Ġw ine
ens ional
Ġlun ch
Ġre aching
Ġag ent
Ġrevolution ary
Ġm ouse
Ġsuccess or
Ġd rew
ell a
Ġj ord
Ġfl av
Ġair pl
Ġmiss ouri
Ġsil ly
Ġscul pt
as ka
Ġassist ance
Ġdoll ars
Ġpass ing
Ġformer ly
Ġexerc ise
Ġalgor ithm
Ġmanus cript
ic y
Ġposs ibility
Ġreform s
Ġconsum ption
Ġsweet ie
Ġch ose
Ġpar ad
Ġans wer
Ġk ong
Ġrad ical
Ġarg ues
Ġrare ly
Ġcrow d
Ġlew is
Ġb ones
Ġsou l
Ġdiv ine
Ġsc hed
Ġdesign ated
Ġmag ic
omm un
Ġprot ocol
Ġin g
Ġass ass
Ġmat ters
Ġpaint ings
Ġand rew
Ġ194 1
Ġmechan ical
er ted
Ġn an
un t
Ġdan iel
iss ions
Ġfeat uring
Ġca es
ou l
Ġmo sc
Ġsix th
Ġbreak fast
Ġneut ral
an ium
Ġf isher
Ġhe lic
Ġact or
Ġcommit ted
Ġperson nel
Ġden omin
it led
Ġr if
Ġdav is
Ġbring ing
Ġpl astic
Ġbr ig
Ġren amed
Ġbun ny
Ġf ounder
Ġde leg
Ġsome what
Ġrom ans
Ġmal es
Ġprec ise
Ġres ident
Ġmed iter
1 8
Ġp ent
Ġprov inces
Ġpass engers
Ġweap on
ed ia
ag en
Ġdo gg
ed ing
Ġdep os
ins on
Ġincorpor ated
ab ilities
Ġcons ult
Ġs i
Ġcapt ure
at i
Ġpartic le
Ġbranc hes
Ġman if
Ġnorth west
Ġexpl icit
Ġappe al
Ġviol ent
Ġh ind
em an
Ġrespons ibility
Ġlegisl ative
Ġmediter ranean
Ġl yn
um es
Ġshap ed
b l
ain ts
Ġox id
Ġgeorg ia
Ġs ale
Ġcer t
Ġrelationship s
Ġser ves
igh th
Ġhost ed
Ġext ension
Ġarg ue
Ġsuper ior
Ġhor iz
Ġam pl
Ġ eric
Ġs ample
Ġc ited
Ġg oth
Ġk al
hamm ad
Ġb id
Ġcontin ental
Ġjul ian
Ġy ard
Ġret ired
it i
Ġvari able
ud i
are t
Ġend s
1 9
Ġ *
Ġs ight
Ġb reat
Ġtra cks
Ġent ry
re c
Ġf ab
Ġmusic ians
Ġdra ft
or ic
Ġby z
iv als
ik h
Ġsee k
m ony
Ġm ath
Ġsyn d
Ġexperiment al
Ġempt y
Ġlo se
Ġprom oted
Ġalle g
n ament
Ġs s
Ġcl othes
Ġart ific
Ġdest ruction
Ġchair man
Ġex cess
Ġlo yal
Ġmexic an
Ġcere mony
ro gen
ound ed
Ġsatur day
Ġb ub
Ġsp r
ach us
Ġkeep ing
Ġbyz ant
1 3
il a
Ġhead s
Ġb orders
Ġmon itor
Ġrepresent ing
Ġpred omin
Ġcre am
Ġchick en
Ġc ant
Ġc ave
id ency
Ġperform ing
m akers
ak ed
Ġtax es
Ġinfant ry
Ġadap ted
r ors
ic ate
Ġocc as
Ġimposs ible
Ġp ale
ce l
ra ction
Ġmar x
Ġmagn itude
Ġy ards
Ġr ational
Ġsu s
Ġvot ers
Ġapol lo
Ġp itch
ost er
Ġst im
Ġro cks
ron es
Ġturk ish
Ġsa il
Ġsubs id
et te
Ġnovel s
Ġwalk ing
ar io
Ġg ate
em ploy
Ġvot ing
Ġl akes
Ġdom ain
Ġmosc ow
e z
ap ers
Ġprop ag
Ġrece iving
c ers
Ġinter ior
Ġwind ow
Ġmechan ism
Ġp ink
op l
Ġun less
Ġgr ade
Ġsen ator
m o
ast s
Ġnecess arily
Ġtransl ated
Ġprof it
Ġt as
Ġrul ing
Ġle ct
Ġreb ell
Ġt am
Ġmed al
ipp ing
Ġrock et
Ġsee king
Ġbig ger
ino is
Ġmich igan
Ġo oh
Ġis ot
ific ations
Ġmill enn
Ġdist ributed
Ġfall ing
t i
ter ing
Ġindust ries
cript ion
Ġexped ition
Ġear ned
Ġwrit es
adel ph
Ġd ating
Ġbeg un
Ġreferen ces
o ir
Ġex ceed
Ġev il
Ġoffic es
Ġhop es
Ġlin ks
Ġmov ies
hed ral
Ġcred it
du le
Ġseem ed
Ġstrugg le
Ġf ired
u its
ec ess
Ġ5 5
Ġsty les
Ġfem in
Ġp ip
Ġmiss ions
Ġkit tie
Ġcl ar
Ġpub l
et ts
Ġun employ
Ġ4 4
Ġfound ing
Ġp orts
Ġpers ons
Ġsing er
Ġclear ly
u ous
Ġg or
Ġorgan ic
Ġcommon we
Ġann ivers
Ġfeder ation
Ġreturn ing
Ġunus ual
Ġholly wood
. ,
Ġk ansas
ive red
Ġpl ain
Ġredu ction
Ġencoura ged
Ġanth rop
Ġscen es
Ġcolle ges
Ġpoll ution
Ġprom pt
Ġan arch
Ġk ir
Ġprodu ces
Ġm ol
Ġchap ter
d i
Ġcar ib
Ġsm art
Ġpass enger
Ġdemocr ats
Ġcommonwe alth
Ġc ul
Ġg ang
Ġplan ets
Ġexpl o
Ġhealth y
claim ed
Ġrequire ments
r ary
ag ues
Ġfun ds
Ġdep th
Ġcontro ll
Ġtra ined
b les
re p
Ġdel ivered
Ġpu zz
Ġrac ial
Ġha ven
Ġcol umn
Ġill inois
Ġ |
Ġse es
Ġfin land
Ġpenn s
op es
Ġpr uss
Ġs ult
el a
Ġcould n
Ġang le
ch ing
ish ing
Ġsymb ols
Ġax is
? "
Ġst em
Ġ194 2
Ġredu cing
Ġb one
Ġk o
Ġdisco ver
Ġp ock
Ġcl inton
Ġrem ark
Ġacknow led
Ġfin ite
Ġslow ly
h an
r ons
Ġinv ent
Ġkh an
Ġc p
Ġto mb
Ġ194 9
Ġcharacter ized
Ġtransfer red
Ġk ab
Ġwor st
clud e
ad y
Ġear n
Ġb in
Ġpercent age
Ġfav our
Ġpropos al
x ual
Ġill ness
Ġhaw ai
Ġhelic op
Ġar bit
Ġab st
Ġfl ed
Ġg ent
b ered
Ġfact ory
Ġintegr ated
Ġannivers ary
Ġarg ent
Ġflow ers
aw a
Ġclub s
Ġsud den
Ġpri est
Ġdiv isions
Ġspok es
Ġdistin ction
2 8
p orts
Ġp el
Ġre na
Ġthr one
Ġsubstant ial
Ġregular ly
en na
Ġpr inted
Ġgal ax
j i
Ġjour ney
Ġt ons
Ġfred eric
as m
Ġ195 9
Ġpoin ted
Ġdepend ent
Ġbl ank
Ġmiss ing
Ġban ned
Ġenter pr
og y
Ġsurv ive
Ġmetropol itan
cer tain
o a
Ġtr ump
Ġcl ust
Ġgerman ic
cont in
Ġpenns ylvania
Ġd io
Ġstud ying
b orn
ol ith
Ġli k
Ġelse where
Ġdiscuss ed
Ġphil adelph
Ġdep ends
om a
Ġla id
Ġmal ays
Ġwithd raw
achus etts
Ġd y
Ġ4 7
Ġfall s
Ġimplement ed
ĠâĪ Ĵ
er als
Ġv oy
om orph
x ide
Ġthem es
Ġmass achusetts
2 7
u x
Ġt ort
Ġli ver
Ġcont est
Ġ195 6
Ġb ru
ro g
et ary
el ly
Ġgerm ans
Ġcop per
Ġdemonst rated
o ly
Ġd ual
Ġwho ops
o ys
Ġib m
Ġdec ay
Ġvol t
Ġgu ar
Ġcr imes
Ġdim ensional
Ġt et
Ġolymp ics
Ġland sc
Ġappo int
Ġbehav i
Ġswim ming
j an
Ġbo ats
Ġland ing
br idge
it udes
Ġdep ut
on so
Ġser b
Ġrem ote
Ġhead ed
Ġken ned
i y
Ġt ang
Ġjac ob
Ġth urs
Ġgod s
Ġsh ore
Ġleg s
Ġunder ground
Ġinfin ite
in er
ut en
Ġle on
Ġdep ression
Ġap ost
Ġexper iences
Ġl ots
Ġtan ks
Ġphiladelph ia
Ġin se
Ġfor g
Ġneigh bour
Ġfor b
es c
Ġgr ay
Ġmot iv
Ġdin ner
Ġdeclar ation
in n
Ġqu iet
Ġmain land
Ġst ating
Ġess entially
Ġdis miss
Ġord inary
Ġpray er
g ments
Ġalph abet
Ġcircum st
Ġout er
Ġ194 7
Ġvari ations
Ġconsum er
Ġst ood
2 3
z er
Ġh ong
Ġdis ag
Ġsee ing
Ġ195 8
Ġt ap
Ġl uther
Ġg ib
pl ay
Ġeld er
au g
Ġtechn ologies
Ġsust ain
Ġhypothes is
Ġh ipp
Ġw oo
Ġrec o
Ġlu x
Ġphil ip
Ġmiss ile
Ġparliament ary
Ġreven ue
Ġcoll apse
Ġpart ner
Ġdec ide
Ġg il
Ġtr u
Ġsl av
Ġcorn er
in th
Ġsec ure
Ġret ire
Ġreact ions
Ġacc ord
c s
Ġprob ability
Ġalex and
e ing
Ġknow s
Ġconvent ional
ab il
Ġe ag
ul ating
Ġha z
ak a
Ġag gress
Ġinv ented
Ġorigin ated
Ġ194 6
Ġwh it
Ġhung arian
so le
Ġorgan isms
Ġperform ances
Ġshar p
Ġs ulf
ic ations
Ġtell s
Ġfant asy
2 9
Ġst ages
Ġsecond s
Ġl en
Ġ4 3
Ġmet als
Ġd iverse
Ġl ind
Ġy og
ch i
Ġest ate
Ġa le
im a
ay a
Ġ19 00
ograph ical
Ġengine er
Ġm erg
Ġen ab
Ġgu ide
Ġvoc al
Ġl ap
ir a
Ġdetail ed
Ġrem ove
Ġaff ord
Ġindic ated
Ġsuppl ies
Ġp s
Ġg az
Ġinst alled
Ġbelie ves
Ġeng aged
Ġste am
Ġrestaur ants
Ġstrateg ic
Ġkenned y
pl ace
Ġdef ine
Ġfeel ing
Ġp ic
Ġconf ig
Ġvac u
Ġag encies
Ġout bre
Ġfem ales
Ġrecomm ended
if er
Ġgradu ate
Ġres erve
Ġtra ins
Ġpsych ology
g i
ia h
Ġalbum s
Ġd re
Ġgu ine
r in
un c
Ġcontribut ions
Ġaccompan ied
Ġp ir
Ġm igration
Ġbat tles
Ġm ike
ra v
Ġfer til
Ġw ake
ro se
Ġto bac
ir ation
Ġco vers
Ġdes ire
Ġent itled
Ġer n
Ġarri val
Ġprefer red
Ġthurs day
2 6
b ec
ri ers
Ġappropri ate
Ġt ag
Ġf asc
Ġpo ison
Ġrec ip
Ġwould n
Ġjo e
Ġvirt ual
it o
ron t
Ġoccup ation
Ġcateg ories
Ġ191 8
Ġfac ility
Ġspect rum
Ġres erv
Ġacc om
Ġgl ac
Ġcelebr ated
Ġpalest inian
Ġt one
Ġl iv
Ġphilosoph ical
Ġcred ited
Ġdial ect
Ġaccom pl
c ar
Ġbre aking
Ġden mark
Ġloss es
Ġveloc ity
h us
u ate
om es
Ġal i
Ġsol utions
Ġdiam ond
Ġdec or
Ġvict ims
Ġbron ze
Ġre cept
Ġcivil ian
ut s
Ġarm en
be an
uel a
Ġst ored
Ġpur ple
Ġthreat ened
Ġforest s
Ġcol omb
Ġmolec ular
Ġsult an
Ġpap ers
Ġpublic ly
Ġgod d
int end
Ġtobac co
Ġsupport s
Ġappro val
Ġst uck
ain e
Ġsc ar
Ġhand le
1 7
Ġemploy ment
Ġenforce ment
i est
Ġshe ep
Ġartific ial
Ġser ver
Ġmin isters
Ġtast e
Ġcur rency
or a
Ġmo ves
Ġsim ult
Ġch ocol
rib ed
Ġrout es
et he
Ġthir ty
Ġsimult ane
Ġbo o
Ġstand s
Ġrest ric
Ġsche me
Ġelect oral
Ġengine ers
Ġdut y
Ġdogg ie
Ġf old
Ġsa udi
Ġatt orn
Ġsw itzer
Ġstat ist
Ġbor row
Ġannoun ce
Ġathlet es
Ġp as
Ġp iano
Ġinter vent
Ġdiplom atic
Ġthe od
Ġwill ing
Ġlic ense
Ġalph a
ic ide
Ġn oun
Ġr on
Ġ12 0
Ġa ven
ad ow
Ġcomp at
Ġelement ary
Ġcru c
Ġa ster
Ġh ills
Ġcap e
Ġaff il
Ġmor ph
Ġswitzer land
em en
Ġab e
Ġfrequ ent
Ġt ens
ial s
Ġexpos ure
p ro
iv eness
Ġsy rian
Ġmu hammad
Ġto ler
ur ation
ub e
Ġinst ruction
Ġground s
Ġwatch ing
Ġrestrict ions
Ġ194 3
Ġsatis f
p art
Ġexp osed
Ġinst all
Ġcult iv
Ġwind s
Ġguar ant
Ġst ro
Ġqu ad
Ġprogram me
Ġann ually
Ġang lo
Ġcond em
Ġvir us
Ġsqu ad
pect ive
Ġdistingu ished
Ġd ict
ug os
Ġspace craft
Ġprison ers
Ġmor oc
Ġsubst it
Ġcooper ation
Ġher self
Ġinflu ences
Ġrefer ring
h ire
Ġt ay
Ġconvers ion
Ġeleph ant
un der
Ġlast ed
Ġconsist ed
Ġthin ks
Ġlong est
Ġpain ted
Ġdisp ute
Ġv ik
Ġbl ind
Ġse ctions
Ġpr int
Ġsuff ering
Ġc ash
Ġnot ion
Ġpres idency
Ġdown town
Ġe ty
Ġlic ens
Ġcompar ison
h um
Ġsome body
ros cop
Ġcrop s
Ġh ier
Ġsurv iving
Ġtra il
Ġexp orts
Ġ195 3
Ġfurther more
or ous
or gan
Ġsent ence
Ġtiss ue
Ġan at
Ġwh ale
Ġwa iting
Ġrh yth
Ġdial ects
Ġdrink ing
Ġc ass
Ġrel ief
Ġass ault
Ġcr ash
bo x
Ã³ n
Ġpurch ase
Ġety m
s is
Ġ il
Ġdiv or
se e
Ġav o
Ġste ve
Ġnomin ated
8 6
Ġstre am
Ġphr ase
e per
Ġp y
Ġwas h
Ġ195 7
Ġpurch ased
Ġtherap y
Ġesc ap
Ġ195 5
Ġto t
Ġchocol ate
Ġl em
Ġfor d
Ġnick n
Ġl ists
Ġhon our
ograp her
ic an
Ġple as
Ġtub e
Ġisol ated
Ġcarib bean
Ġdam aged
er ior
Ġd al
Ġarg uments
Ġd iver
Ġl ions
Ġr ud
Ġun certain
Ġvacu um
Ġl ock
Ġphenomen on
Ġf ing
Ġto xic
Ġk im
Ġwor ship
Ġadv is
Ġlat est
Ġp ages
Ġh oc
c ol
Ġretain ed
Ġcon j
rom e
Ġent r
Ġaim ed
Ġp se
Ġfin n
Ġrang ing
f e
Ġwor se
Ġrespond ed
Ġfranch ise
Ġv ene
Ġapparent ly
Ġt ib
Ġs ant
ing ton
Ġdocument ary
Ġtheore tical
Ġl am
Ġre ar
Ġdie go
Ġoper ates
ier ra
Ġchamp ion
Ġpus hed
a ren
r ig
Ġmar ia
Ġjord an
Ġf ighters
vel and
Ġeu ro
Ġsubst ance
Ġmur d
Ġp ill
it als
Ġd v
Ġst amp
Ġro of
Ġ16 0
p ass
Ġg n
Ġreg ister
Ġinsur ance
Ġbl ues
Ġsub sc
Ġbound ary
r atic
Ġsh irt
Ġdiscuss ion
Ġper ceived
Ġret ail
Ġeconom ics
Ġfind ings
Ġrul er
Ġtem por
Ġrac ing
Ġnor we
Ġcharacter istic
Ġcro at
Ã §
ov a
Ġdel iver
Ġoff ering
Ġrec re
Ġhear ing
Ġf ib
Ġh ired
Ġpro ve
Ġwar fare
Ġheav en
Ġimplement ation
ov ak
Ġeth an
Ġphot os
Ġinv ited
Ġchild hood
Ġstal in
Ġrena issance
un s
Ġb ry
ear s
Ġden ied
Ġemphas is
rom agn
Ġcor ruption
Ġcontinu ing
4 7
l an
Ġoff ensive
Ġsh opp
Ġyour self
Ġcryst al
Ġpse ud
Ġad ams
Ġmar c
sh ire
Ġm ud
Ġ9 5
as hed
Ġconsist ent
Ġanne x
e enth
il ation
Ġpe ek
Ġpres erved
n et
s k
Ġthe ater
Ġopp onents
Ġprom ised
Ġprofess ion
Ġfrederic k
r ant
Ġt ired
Ġr hod
Ġcar rier
Ġmet all
Ġjud a
Ġess ay
Ġsym met
un ction
Ġbal t
Ġnap ole
Ġequ ations
Ġhar mon
Ġsevent h
Ġv ic
Ġpart ially
Ġgot ta
Ġtun nel
Ġintellect ual
Ġvar iation
Ġy ield
Ġpart ial
Ġmong ol
Ġvar ies
Ġorgan isation
Ġsol o
Ġmeet ings
Ġcu is
Ġtrop ical
Ġb ite
Ġbro ok
Ġsoc cer
Ġmat rix
Ġoverse as
Ġsor ry
an th
Ġjo h
Ġen l
ph al
Ġcot ton
Ġguine a
k h
Ġab und
Ġad mitted
Ġleg it
Ġd ated
Ġus ual
t hen
v ious
w ich
Ġab b
Ġwho a
Ġtour nament
Ġattract ed
Ġb inary
Ġpers u
o om
Ġinstruct ions
Ġr aces
Ġcamp s
r ical
Ġ6 00
Ġmechan ics
Ġdeb ut
Ġchann els
Ġbond s
w estern
Ġrel at
Ġinf lation
Ġbuddh ist
Ġcircumst ances
Ġb le
il ton
Ġj et
Ġconstit u
b age
m es
Ġsim on
Ġhar ry
Ġconqu est
Ġc ous
Ġprov ision
Ġrom antic
Ġdescrib ing
Ġf aces
Ġreg ulations
Ġreflect ed
h al
Ġdan ish
Ġsched uled
Ġvene z
Ġt rend
act ive
Ġ195 4
Ä «
Ġdis order
3 5
el ine
Ġsur ve
Ġcut ting
Ġmess ages
os ing
Ġnort heast
Ġpick ed
Ġbyzant ine
Ġfind s
ar n
Ġh ou
Ġex clud
re al
Ġpe as
Ġcloth ing
m outh
Ġ193 8
Ġcompos er
Ġowners hip
Ġvictor ia
Ġb its
Ġrese mb
Ġfunction al
Ġsam ples
Ġans w
Ġ4 2
Ġprev al
9 0
Ġmar ks
o ons
Ġc ig
Ġmain stream
Ġroll ing
ire ct
Ġsoc ieties
Ġmiss iss
Ġfamil iar
Ġrestaur ant
Ġd ust
Ġint ent
Ġfac ult
Ġconnect ions
Ġd ick
Ġdon ald
Ġ195 2
m l
Ġp ant
Ġre vers
Ġsh r
Ġep ic
Ġphilos opher
b ish
Ġcon ven
Ġimp rison
Ġairpl ane
Ġident ical
Ġn aim
Ġon t
Ġ4 6
Ġpass es
Ã ±
Ġthe ology
Ġo ak
Ġd iction
ose xual
Ġrem em
Ġenc od
Ġabs ence
Ġexecut ed
ac he
ag a
Ġsing ing
i op
Ġtr ick
Ġcar n
Ġcr ay
Ġevery body
Ġcle veland
Ġinterest ing
Ġcertain ly
Ġopt ical
Ġparticip ate
Ġnewsp apers
Ġgodd ess
ail s
Ġmississ ipp
Ġestablish ing
Ġf ighter
Ġinter face
Ġfil es
Ġturn s
Ġjud ges
Ġs ic
Ġdis k
Ġcard inal
Ġrecomm end
Ġbrief ly
Ġvessel s
re hens
Ġdo zen
Ġn athan
Ġdr ama
Ġre un
if ies
ate ver
Ġtrib e
Ġall en
Ġbr id
Ġfar ms
Ġread ers
Ġrelig ions
Ġcolor ado
s m
Ġf ict
Ġcover ing
Ġdang er
Ġexplan ation
Ġpo ems
Ġopt ion
ut er
Ġrec on
Ġext ract
u v
Ġsl ide
Ġsepar ation
Ġreco very
Ġfrank lin
c as
p ing
p et
Ġc ad
Ġbas es
Ġtem porary
Ġrab bit
d am
i ac
ir al
Ġcat hedral
Ġinj ury
Ġunemploy ment
e v
Ġh ob
Ġcom ics
Ġmet aph
Ġnat urally
Ġra w
Ġparticip ation
Ġseat tle
Ġcomplic ated
Ġnaim a
ol i
Ġfac ing
Ġmir ror
m ont
Ġf lex
Ġtw in
Ġr av
Ġj r
Ġchar ter
Ġdir ty
9 9
Ġt ed
ul es
Ġpo ol
Ġgener ations
Ġsouth west
Ġfar ming
Ġmount ed
Ġrecogn ize
Ġd ies
ol is
am i
Ġwh atever
Ġuns u
Ġjuda ism
Ġk at
Ġmar gin
Ġcount ies
Ġsm ooth
che ster
Ġpow ered
Ġnom i
Ġact ors
Ġprin ting
Ġinteract ion
Ġsuccess ion
Ġtest ed
Ġask ing
f c
Ġwin ner
Ġtest ament
Ġ191 9
Ġcav al
Ġg osp
Ġj enn
Ġfollow ers
Ġbas in
Ġprop ortion
Ġstruct ural
Ġmagn et
Ġstart s
Ġvac c
Ġari z
Ġo ops
Ġch ile
Ġant ib
Ġindic ates
po int
Ġcl ay
ol ve
Ġbut ton
Ġbel t
Ġhy br
Ġrebell ion
Ġhigh way
Ġinj uries
Ġcons on
Ġsn ake
Ġdut ies
Ġt ies
Ġh ide
Ġcomm od
Ġra ising
Ġleban on
Ġdoll ar
Ġh ond
Ġla ure
io let
Ġstrong er
Ġassist ant
Ġran ks
ugos lav
Ġf ill
Ġcomput ing
Ġlif etime
Ġn ich
im ore
Ġsh op
Ġsw iss
Ġmanufacture rs
Ġnorwe gian
6 4
Ġconcer ning
Ġpsych ological
Ġstru ck
Ġinvolve ment
Ġe in
Ġcomm em
Ġvar ieties
Ġnegot iations
Ġy ugoslav
Ġ193 6
Ġjurisd iction
ph ones
Ġsm oke
Ġpro s
Ġno ble
Ġterrit orial
f ather
stand ing
Ġd rones
ro c
Ġis a
Ġgood ness
Ġeven ing
Ġsett lers
don ald
u able
st s
Ġsh ock
Ġrest ored
Ġstay ed
Ġsettle ments
Ġframe work
Ġal aska
Ġrail road
Ã¡ n
Ġarrang ed
Ġchalleng es
Ġnew ton
Ġfoss il
Å ¡
ove red
Ġtravel ed
Ġhe li
Ġcomp ens
Ġjud icial
Ġflu id
Ġdram atic
ac ent
Ġinterpre ted
Ġon going
Ġper mitted
Ġup gr
Ġpre gn
Ġdep icted
Ġbar n
Ġpro sp
Ġnot ice
Ġcontin ent
Ġ193 3
n om
ort ed
Ġadv ice
Ġtele c
Ġtarget s
Ġadvert ising
Ġresc ue
in clude
Ġaccur ate
Ġeb ola
Ġpublish ing
es ters
Ġpre mi
Ġs ierra
Ġonly include
Ġac ids
Ġcon greg
og le
Ġhun t
Ġdri vers
Ġmix ture
Ġphilipp ines
Ġal ive
ill ery
Ġob vious
Ġoper ational
Ġmississipp i
h r
Ġb eng
Ġwor ried
Ġcomp ound
Ġcomp act
Ġpap al
Ġsie ge
Ġstatist ical
Ġg ab
ac le
Ġsy ll
Ġtrans mit
Ġib n
Ġterm inal
Ġportug al
Ġcat tle
Ġsec ular
Ġfac ilit
Ġproced ure
b u
Ġveget ables
Ġrestric ted
Ġbalt imore
Ġco verage
Ġsh akes
Ġsh orter
Ġconc rete
Ġair lines
Ġsp ell
Ġev angel
Ġpo le
Ġ6 8
Ġcour ses
Ġnomin ation
Ġex cell
Ġsc ored
Ġappro aches
Ġcomplex ity
Ġk az
Ġint ense
Ġmat the
Ġg ri
Ġlo ad
Ġcere mon
Ġobserv ations
Ġrang es
olith ic
Ġattorn ey
Ġc yl
Ġfor th
Ġal k
Ġeff iciency
Ġbel g
Ġprogress ive
f s
Ġpat ient
Ġmem br
Ġ193 7
Ġur anium
Ġo m
Ġl is
Ġcommission ed
Ġbound aries
d ed
f it
Ġres ign
Ġ5 4
Ġdivers ity
o en
he as
Ġst ability
Ġhol es
Ġcompet e
Ġsurround ed
Ġarm ies
ha ust
rim ination
otyp e
Ġin qu
Ġge ography
Ġkil omet
ur g
Ġk os
Ġint ention
Ġfl our
Ġpat ent
Ġt ab
Ġg ap
Ġsp ark
oc ent
Ġest imate
Ġmet h
Ġbab ies
Ġst ones
Ġgreg ory
ro ph
Ġch ip
Ġcan ce
Ġsub t
Ġ25 0
Ġadapt ation
Ġsh a
ger y
Ġdra g
Ġstat ue
Ġn urs
Ġarab ia
Ġbot tle
Ġdio xide
he rent
re ction
Ġtur b
Ġmax im
Ġvolt age
Ġun ity
Ġsud an
Ġenjoy ed
Ġpock et
Ġli kes
Ġtell ing
Ġlun ar
Ġgrav ity
Ġn aming
Ġrec overed
Ġtrib al
Ġbind ing
Ġt at
Ġwhe at
ix on
Ġbes ides
Ġmere ly
Ġt ied
Ġa ware
Ġgu est
Ġless er
Ġcat s
Ġm i
Ġcomp rom
Ġfa ult
Ġs ession
Ġm old
Ġdef ensive
Ġd od
Ġr ings
Ġsy mp
Ġbish ops
Ġhop ed
Ġreview s
Ġj am
Ġpot entially
athe red
f r
Ġbe er
Ġpit ts
Ġc ord
Ġpartners hip
Ġm aced
Ġout l
Ġinter med
Ġnat o
Ġpra ised
Ġpay ing
Ġregist ered
e qu
ĠâĢ ¦
Ġreal ized
Ġsuit able
Ġma ur
Ġalf red
Ġw age
Ġj ury
Ġlo b
Ġke ys
Ġcompet itive
Ġcreat ive
Ġw ish
Ġex haust
Ġstr ings
Ġgraph ics
w art
Ġs ending
Ġmar ry
Ġelect romagn
Ġm t
om ous
Ġk y
Ġmat ches
Ġel abor
Ġ195 1
iam i
Ġliber ty
Ġcust oms
Ġc yp
ac c
Ġrec order
Ġb h
Ġbr ush
Ġart istic
Ġa hm
Ġoper ator
Ġlegisl ature
Ġorient ed
Ġhou ston
Ġanti qu
Ġdol ph
Ġconflic ts
Ġsynthes is
Ġor al
Ġmar it
Ġstud ios
Ġgramm ar
Ġroman ia
Ġmamm als
Ġabst ract
f ts
Ġres idence
Ġsy d
Ġass ign
Ġgu ys
Ġexec ution
Ġreplace ment
Ġnut rit
7 5
Ġar k
Ġtay lor
z ed
Ġc au
Ġm iami
th at
Ġ191 7
Ġmathem atic
Ġnot ation
Ġind ians
Ġmin nes
Ġsw ing
Ġvary ing
Ġjo y
Ġparticip ated
Ġariz ona
Ġbib l
Ġdat ab
Ġwor n
ĠâĢ Ļ
Ġdis aster
Ġrequ iring
Ġpair s
Ġindones ia
Ġcuis ine
Ġp ont
et ers
Ġman ip
Ġdistingu ish
Ġch ris
Ġcar ter
Ġw ider
Ġr i
Ġpl ural
Ġ8 00
Ġequ ipped
Ġevolution ary
g ue
Ġle v
Ġper mit
Ġopportun ities
Ġn ur
Ġfl ash
ch o
Ġe ighth
ot o
Ġdel iber
Ġdou gl
Ġphot ograph
Ġjeff erson
Ġconsequ ences
b ell
al f
Ġem issions
Ġer u
Ġfing ers
Ġtelec ommun
n ight
Ġsc rew
Ġrec alled
Ġang lic
Ġhol iday
Ġreb u
heas tern
m ble
Ġf ed
Ġd all
ro it
Ġj ane
Ġprodu cers
Ġfin ance
Ġbi ology
Ġmary land
Ġa ver
Ġco at
Ġhand ed
Ġwealth y
Ġ Ã©
er a
Ġn est
Ġsw it
Ġcitiz en
Ġkit chen
Ġsleep ing
Ġb are
ur as
Ġen orm
Ġro ger
Ġval uable
Ġopt im
Ġiniti ative
Ġtriang le
ail and
Ġpred ecess
Ġburn ed
Ġcam bridge
Ġunsu ccess
b ar
st ic
Ġthere by
Ġang ry
ex p
Ġs ig
Ġport ra
Ġham ilton
Ġth ailand
Ġcontrol s
Ġtib et
du ctor
Ġwood en
Ġiran ian
g ie
Ġg au
st r
Ġspecial ized
Ġelectron ics
Ġnar rative
Ġetym ology
u ated
Ġro y
ik a
Ġw ings
Ġ4 1
Ġdisc rimination
Ġvari ant
sec ution
in der
Ġsu icide
Ġgl ad
Ġtour ists
Ġhung ry
g raph
ul ous
un a
Ġper mission
Ġdist ribut
Ġhapp ening
Ġcorpor ate
Ġ191 4
Ġregard less
Ġquant ities
Ġsh ares
ather ine
Ġweek ly
Ġsac red
Ġj up
